▁xxunk	0
▁xxpad	0
▁xxbos	0
▁xxeos	0
▁xxfld	0
▁xxrep	0
▁xxwrep	0
▁xxup	0
▁xxmaj	0
<unk>	0
▁	-2.00742
.	-3.24237
,	-3.56437
'	-3.91459
▁ve	-3.9817
▁bir	-4.44179
"	-4.97665
▁bu	-5.06137
̇	-5.256
▁i	-5.26945
▁"	-5.27069
a	-5.34792
da	-5.37558
▁olarak	-5.41202
de	-5.4322
i	-5.43914
e	-5.48018
▁ile	-5.52543
in	-5.52703
▁için	-5.52867
’	-5.64623
nin	-5.70775
▁(	-5.71675
nın	-5.75277
-	-5.75982
)	-5.872
n	-5.90106
▁olan	-5.90531
ın	-5.93476
▁da	-5.9814
lar	-5.99999
▁daha	-6.03329
ne	-6.0998
ler	-6.10187
ya	-6.10466
▁de	-6.10525
▁sonra	-6.20574
na	-6.22738
▁tarafından	-6.24553
▁en	-6.31457
te	-6.3452
s	-6.34667
dan	-6.41998
den	-6.42115
k	-6.47124
un	-6.47408
▁gibi	-6.49297
▁ilk	-6.50532
▁çok	-6.51013
▁büyük	-6.51957
▁3	-6.54402
:	-6.54801
ları	-6.56602
;	-6.58421
ı	-6.59455
ye	-6.59895
ni	-6.60995
▁ise	-6.61212
ta	-6.6553
leri	-6.70086
la	-6.71103
▁yılında	-6.71537
▁kadar	-6.72252
le	-6.73313
u	-6.75431
▁ancak	-6.80287
▁iki	-6.82036
li	-6.82089
dir	-6.83517
m	-6.88085
nde	-6.88837
t	-6.88973
nda	-6.89104
▁göre	-6.90837
▁arasında	-6.91069
▁olduğu	-6.91486
▁diğer	-6.91963
▁yeni	-6.93756
▁karşı	-6.97436
si	-6.97867
▁yer	-6.98466
▁her	-6.98995
▁veya	-7.00204
nı	-7.00333
daki	-7.0078
dır	-7.05309
ların	-7.07861
yi	-7.07986
l	-7.08345
▁oldu	-7.09202
r	-7.10587
▁aynı	-7.10625
lerin	-7.1259
nun	-7.14898
lı	-7.16368
d	-7.18333
▁etti	-7.18822
▁birlikte	-7.19069
▁0	-7.20067
di	-7.20695
▁olduğunu	-7.20785
yı	-7.22544
ki	-7.24244
▁o	-7.26624
▁/	-7.26817
o	-7.26935
yla	-7.30208
▁ayrıca	-7.30817
▁önemli	-7.3126
▁son	-7.31921
ndan	-7.3235
z	-7.32426
▁şekilde	-7.33006
nden	-7.36654
sa	-7.39439
yle	-7.39456
▁bazı	-7.40069
deki	-7.40321
lik	-7.40814
▁tüm	-7.42393
▁dünya	-7.42748
▁önce	-7.42797
▁yıl	-7.43305
▁1	-7.46227
▁kabul	-7.47188
▁birçok	-7.48859
y	-7.5008
▁kendi	-7.51038
▁yüksek	-7.51317
larını	-7.51648
▁2	-7.52475
▁zaman	-7.5354
en	-7.5411
▁sahip	-7.54143
sı	-7.54275
▁üzerine	-7.54618
▁fazla	-7.5697
▁yapılan	-7.57742
▁geri	-7.57837
ten	-7.58381
”	-7.58931
▁içinde	-7.59098
▁ortaya	-7.60518
▁“	-7.61116
▁hem	-7.61405
▁türkiye	-7.61497
▁bulunan	-7.62456
ca	-7.63172
tan	-7.63531
▁üzere	-7.63567
▁ya	-7.64435
er	-7.64449
ti	-7.64524
▁eski	-7.6456
p	-7.64578
▁üç	-7.64933
h	-7.65123
an	-7.65526
▁avrupa	-7.6569
se	-7.65842
▁devam	-7.65856
▁alan	-7.67189
▁tek	-7.67319
lerini	-7.67542
lara	-7.67849
),	-7.68199
▁farklı	-7.69591
▁aldı	-7.69612
▁iyi	-7.6984
▁gelen	-7.70138
▁ardından	-7.7223
▁başladı	-7.72453
▁eden	-7.73331
▁the	-7.73497
lere	-7.73822
▁fakat	-7.74347
c	-7.7509
▁genel	-7.75543
▁üzerinde	-7.75897
▁savaş	-7.75973
▁sadece	-7.77008
b	-7.77273
▁tarihinde	-7.77747
ma	-7.77991
▁bunun	-7.79333
▁küçük	-7.80442
larının	-7.81484
lu	-7.81827
ken	-7.82334
▁boyunca	-7.82913
▁doğru	-7.83272
▁olmak	-7.83379
▁ikinci	-7.84463
▁osmanlı	-7.85411
▁vardır	-7.85924
▁az	-7.86638
▁yeniden	-7.87743
▁kez	-7.87998
▁rağmen	-7.89127
f	-7.8965
▁başka	-7.89657
▁adlı	-7.90126
▁sırasında	-7.90323
▁abd	-7.904
▁su	-7.91171
▁savaşı	-7.91832
▁ama	-7.92402
▁çeşitli	-7.92405
▁türk	-7.93505
▁özellikle	-7.94001
▁uzun	-7.94071
▁devlet	-7.95629
▁gün	-7.95804
lerinin	-7.9652
▁olmuştur	-7.96776
▁yaklaşık	-7.98737
▁ilgili	-7.98991
▁zamanda	-7.9905
larda	-7.99273
▁ana	-7.99498
▁yerine	-7.99998
▁nedeniyle	-8.00164
▁süre	-8.00181
larına	-8.00516
▁biri	-8.00546
▁ele	-8.00662
▁4	-8.00882
lık	-8.01539
▁doğu	-8.01927
▁özel	-8.02559
al	-8.02842
g	-8.03047
▁kısa	-8.0375
▁10	-8.03917
▁5	-8.04025
▁yol	-8.04527
lerde	-8.05097
dı	-8.05469
▁adı	-8.06319
▁el	-8.06443
▁neden	-8.07069
▁birkaç	-8.07329
▁kuzey	-8.07413
man	-8.07699
▁edilen	-8.07982
▁grup	-8.08197
ün	-8.08854
ce	-8.08952
",	-8.08955
▁arasındaki	-8.08971
▁onun	-8.08988
▁edildi	-8.09374
▁batı	-8.09651
tir	-8.10611
me	-8.10938
▁yaptı	-8.11854
▁yaptığı	-8.12
▁bağlı	-8.12512
▁yakın	-8.12575
▁tekrar	-8.13091
▁|	-8.13115
▁altında	-8.13139
▁15	-8.13157
▁sonunda	-8.13185
tı	-8.13619
lardan	-8.13824
▁güney	-8.14194
▁elde	-8.14219
ü	-8.14433
▁of	-8.14555
the	-8.1465
▁ay	-8.14672
▁alman	-8.14732
▁birleşik	-8.14885
▁mart	-8.15343
▁onu	-8.15617
▁verdi	-8.16005
▁genellikle	-8.16555
ç	-8.16631
▁amerika	-8.16787
▁roma	-8.16917
ini	-8.17067
▁9	-8.17137
lk	-8.17964
▁olması	-8.18036
▁ekim	-8.18348
▁dahil	-8.18551
▁mayıs	-8.18576
lerden	-8.18633
")	-8.19036
stanbul	-8.19472
▁hakkında	-8.19774
lerine	-8.20199
▁kişi	-8.20223
▁birliği	-8.20297
▁eylül	-8.20341
▁on	-8.20434
▁eder	-8.20468
▁("	-8.20511
2	-8.20742
▁yine	-8.21142
▁milyon	-8.21623
nu	-8.21992
▁ordusu	-8.23203
▁orta	-8.23302
▁dört	-8.23669
▁ocak	-8.23842
).	-8.24114
▁çoğu	-8.24177
▁bin	-8.24475
▁tam	-8.2479
▁ağustos	-8.24851
▁aralık	-8.25076
▁açık	-8.25086
dur	-8.25471
▁kasım	-8.26053
▁haziran	-8.26205
ran	-8.2622
▁karar	-8.27095
▁buna	-8.27366
▁hava	-8.27491
▁16	-8.27558
▁bütün	-8.27747
ci	-8.28105
lerinden	-8.28161
▁temmuz	-8.28333
▁12	-8.29045
tır	-8.29047
▁askeri	-8.29178
▁sıra	-8.29209
▁ii	-8.29443
ş	-8.30568
sel	-8.30578
▁olmayan	-8.30774
ydi	-8.30923
▁çıktı	-8.3105
▁6	-8.31391
on	-8.31492
v	-8.31606
larla	-8.31707
us	-8.31928
▁nisan	-8.32425
▁etmek	-8.32703
▁deniz	-8.32899
▁böylece	-8.33362
▁hareket	-8.3338
▁oluşan	-8.33586
▁müzik	-8.33624
>	-8.3376
▁sonraki	-8.34171
▁takım	-8.34548
larından	-8.35072
▁hemen	-8.35261
▁temel	-8.3564
▁17	-8.36162
▁almanya	-8.36617
▁insan	-8.36648
▁geldi	-8.36842
▁olup	-8.37197
▁çıkan	-8.37232
ktan	-8.37589
lerle	-8.37871
▁rusya	-8.37889
yu	-8.3828
▁ifade	-8.38334
▁geniş	-8.38608
▁dönemde	-8.39084
ydı	-8.39129
▁film	-8.39312
▁ordu	-8.39411
▁var	-8.39439
▁kara	-8.39559
▁uluslararası	-8.40334
▁bulunmaktadır	-8.40715
x	-8.40911
▁merkezi	-8.41822
ndeki	-8.42003
▁bilinen	-8.42191
="	-8.42275
▁8	-8.42344
▁dolayı	-8.42559
larında	-8.42718
ra	-8.42829
center	-8.43083
▁fransa	-8.43289
▁[[	-8.43494
▁7	-8.43557
el	-8.43926
▁toplam	-8.4417
▁!	-8.44231
▁vardı	-8.44234
▁halk	-8.44293
▁güneş	-8.44349
▁ülke	-8.44419
▁çin	-8.44666
▁iç	-8.44754
▁sonucu	-8.44929
▁sırada	-8.45525
▁üst	-8.45685
▁şubat	-8.46162
ge	-8.46368
▁gelir	-8.46426
es	-8.46533
mparatorluğu	-8.46735
▁üçüncü	-8.46992
▁ek	-8.4705
▁anadolu	-8.47064
▁kalan	-8.47348
▁mısır	-8.47438
ar	-8.47658
▁eğitim	-8.47687
▁örneğin	-8.47804
▁kaldı	-8.47829
▁ait	-8.48024
▁dışında	-8.48121
▁pek	-8.48196
▁güçlü	-8.4825
▁align	-8.48379
▁yanı	-8.48389
▁20	-8.48671
▁sosyal	-8.48828
▁ona	-8.48865
▁kazandı	-8.48916
▁paşa	-8.49831
▁olur	-8.49908
▁çünkü	-8.4992
▁herhangi	-8.50048
▁kadın	-8.5007
▁sovyet	-8.50287
bu	-8.50304
▁14	-8.5045
▁beş	-8.50511
▁güç	-8.50836
re	-8.51497
▁parti	-8.51684
▁enerji	-8.5202
▁iddia	-8.52265
du	-8.52444
▁iş	-8.5267
▁hiçbir	-8.52758
ndaki	-8.52848
sal	-8.52861
▁ekonomik	-8.53238
▁rus	-8.53577
▁benzer	-8.53893
ını	-8.53901
▁11	-8.53939
ngiltere	-8.54001
▁durum	-8.54261
▁değil	-8.5433
▁kullanılan	-8.54381
su	-8.54471
to	-8.54605
ir	-8.54629
▁sistemi	-8.54707
▁<	-8.54803
▁bunu	-8.54834
srail	-8.55101
▁görev	-8.55289
▁sahiptir	-8.55548
▁m	-8.5563
▁konusunda	-8.55788
at	-8.55869
▁başkanı	-8.55924
ve	-8.56377
▁gerçek	-8.56486
▁şehir	-8.56553
▁verilen	-8.5658
▁şu	-8.56626
▁etmiştir	-8.56699
mış	-8.56753
ngiliz	-8.57001
sini	-8.57198
lerinde	-8.57414
pan	-8.57559
▁günü	-8.57687
▁bile	-8.57694
ik	-8.57776
▁para	-8.58196
liği	-8.58247
▁ulusal	-8.58351
▁izin	-8.58568
▁yardım	-8.58721
▁döneminde	-8.58739
ine	-8.59101
▁siyasi	-8.59144
▁burada	-8.59393
▁düşük	-8.60027
▁ettiği	-8.60614
▁yerel	-8.6066
▁albüm	-8.61121
(	-8.61309
▁13	-8.61344
▁bey	-8.6171
▁alt	-8.61979
sını	-8.62245
▁yahudi	-8.62463
▁doc	-8.62898
▁sezon	-8.632
▁oldukça	-8.63386
▁mö	-8.64051
▁yalnızca	-8.64121
▁söyledi	-8.64262
os	-8.64316
▁yaygın	-8.6475
▁tarihi	-8.64941
mıştır	-8.65069
▁ki	-8.65344
▁yapan	-8.65611
▁geçen	-8.65728
▁kontrol	-8.65732
▁inşa	-8.6574
▁idi	-8.66194
tu	-8.66233
▁söz	-8.66326
ö	-8.66453
w	-8.66473
▁bulunduğu	-8.66521
▁şarkı	-8.6679
]]	-8.66894
▁cumhuriyeti	-8.6695
▁dönem	-8.67008
▁beri	-8.67137
▁olabilir	-8.67339
▁km	-8.67521
▁beraber	-8.67587
▁gol	-8.67809
▁önceki	-8.68078
ka	-8.6812
▁itibaren	-8.68239
▁altı	-8.68384
▁birinci	-8.68495
▁ev	-8.68774
▁ayında	-8.68799
▁bilgi	-8.68802
▁bilim	-8.69085
teki	-8.6918
▁new	-8.6928
ed	-8.69467
▁maçta	-8.69598
▁genç	-8.69627
▁devletleri	-8.69653
▁ağır	-8.69761
son	-8.69859
▁dil	-8.6994
▁yok	-8.70066
1	-8.70117
▁içerisinde	-8.70125
▁uygun	-8.70159
▁sayıda	-8.70306
▁başına	-8.70328
ba	-8.70573
▁ön	-8.70701
▁b	-8.70879
▁ülkenin	-8.71095
▁oy	-8.71098
▁sultan	-8.71204
▁18	-8.71207
▁dış	-8.71357
▁bizans	-8.71426
▁30	-8.71442
▁sık	-8.71578
▁grubu	-8.72212
3	-8.72344
▁tür	-8.72352
miş	-8.72641
▁han	-8.72981
▁dizi	-8.73085
▁değildir	-8.73248
arak	-8.73908
j	-8.73922
lan	-8.74058
▁yıllık	-8.74108
▁bununla	-8.74459
▁ilan	-8.74561
is	-8.74642
▁destek	-8.74681
▁aldığı	-8.75189
▁yanında	-8.75443
▁modern	-8.75559
▁sayısı	-8.75727
▁maçı	-8.75921
no	-8.76094
▁hale	-8.76108
▁saat	-8.76397
▁oğlu	-8.76412
▁başarılı	-8.76524
▁tamamen	-8.76633
bi	-8.76704
▁ortak	-8.76728
ri	-8.76746
▁üniversitesi	-8.77007
mi	-8.77049
▁partisi	-8.77213
taki	-8.77416
▁ayrı	-8.77432
▁hafta	-8.77802
4	-8.77879
miştir	-8.77967
▁nedenle	-8.77983
▁edilir	-8.78758
▁uzay	-8.79101
talya	-8.79181
▁kuvvetleri	-8.79438
▁sayı	-8.79546
▁kötü	-8.79596
▁ederek	-8.79762
▁yarı	-8.79782
ton	-8.79802
il	-8.79838
î	-8.80357
kten	-8.8044
▁doğal	-8.80453
▁suriye	-8.80539
▁fransız	-8.8061
▁din	-8.80722
▁haline	-8.80874
cı	-8.80884
▁yani	-8.80993
▁şey	-8.8147
▁kupası	-8.81543
▁araştırma	-8.81606
ter	-8.81823
▁olsa	-8.81841
▁savunma	-8.82142
ha	-8.82299
▁günümüzde	-8.82477
▁resmi	-8.82693
▁devleti	-8.82752
▁krallık	-8.82804
▁sonrasında	-8.82921
▁yılları	-8.83021
▁bunlar	-8.83163
▁bulunur	-8.83196
▁albümü	-8.83313
▁baş	-8.83358
▁erkek	-8.83379
▁sonucunda	-8.83385
▁yüzyılda	-8.83396
▁maçında	-8.83437
▁dair	-8.83724
ro	-8.84039
▁ticaret	-8.84657
▁afrika	-8.84722
▁yapı	-8.84818
▁kral	-8.84839
▁yaşayan	-8.84892
▁yılı	-8.84937
▁artık	-8.85378
▁rol	-8.85513
▁geçti	-8.85544
▁ali	-8.85695
ga	-8.85703
mak	-8.86194
▁maç	-8.86316
▁2.	-8.86378
▁amerikan	-8.86395
▁and	-8.86401
▁girdi	-8.86735
▁edilmiştir	-8.8679
▁takımı	-8.86919
slam	-8.87008
kinci	-8.87042
▁meydana	-8.87693
▁lig	-8.87857
im	-8.88146
▁yönelik	-8.88179
▁to	-8.88245
▁alır	-8.88445
▁al	-8.88505
be	-8.88593
▁oranı	-8.88836
▁amacıyla	-8.88924
▁hizmet	-8.88934
▁bağımsız	-8.88997
lü	-8.89217
▁beyaz	-8.89301
sine	-8.89301
um	-8.89305
▁kat	-8.89477
▁verdiği	-8.89484
▁çalışma	-8.89755
▁1.	-8.89804
yan	-8.89812
▁zorunda	-8.89979
▁25	-8.90019
▁c	-8.90021
]	-8.90365
▁(19	-8.90376
▁olmasına	-8.90536
▁kısmı	-8.90625
▁hızlı	-8.90762
▁eğer	-8.90939
it	-8.91004
▁öne	-8.91083
▁teknik	-8.91172
▁ileri	-8.91372
▁ölçüde	-8.91456
▁yüzyılın	-8.91486
▁adını	-8.91652
▁john	-8.9177
▁general	-8.91778
▁bunların	-8.92048
▁içeren	-8.92496
▁yardımcı	-8.92564
▁sona	-8.92879
▁mücadele	-8.92915
sına	-8.93281
tur	-8.93334
▁çıkar	-8.93649
▁dönemi	-8.93714
▁güvenlik	-8.93813
bir	-8.93964
ber	-8.94206
▁arap	-8.94224
▁hiç	-8.94334
▁f	-8.94607
▁dünyanın	-8.94667
▁konu	-8.94809
▁kullanılır	-8.94849
▁başında	-8.95191
lığı	-8.95273
▁geleneksel	-8.95298
▁merkez	-8.95307
▁kendisine	-8.9544
▁sonuç	-8.95521
▁yaşam	-8.95524
va	-8.95528
▁etkisi	-8.9558
▁üzerindeki	-8.9562
▁yıllarda	-8.95671
▁veren	-8.95927
do	-8.95951
ing	-8.95982
▁erken	-8.96375
▁altın	-8.96417
st	-8.96506
▁bulundu	-8.96586
▁şeklinde	-8.96629
▁elektrik	-8.96663
▁millî	-8.96687
▁temsil	-8.96797
▁hatta	-8.97398
▁kendini	-8.97414
▁oyuncu	-8.97499
luk	-8.97595
inin	-8.97664
▁altına	-8.97761
▁yönetim	-8.97777
▁kralı	-8.97865
▁tanrı	-8.98291
▁sürekli	-8.98594
mektedir	-8.98838
ch	-8.98939
▁futbol	-8.99121
siz	-8.99498
▁yoğun	-8.99665
çi	-8.99742
▁galatasaray	-8.99754
▁diye	-8.99932
▁24	-9.00152
▁serbest	-9.00152
▁parçası	-9.00246
▁nasıl	-9.00385
ke	-9.00439
▁belirli	-9.00552
▁ak	-9.00688
▁sovyetler	-9.00717
▁bölge	-9.0091
▁york	-9.00954
leriyle	-9.01206
▁karşısında	-9.01403
▁göz	-9.01447
▁sahibi	-9.01612
▁sanat	-9.01666
▁barış	-9.01699
▁etme	-9.01758
▁takip	-9.01768
▁ligi	-9.01811
mon	-9.01828
inde	-9.02336
nün	-9.02346
et	-9.02349
▁asya	-9.02426
erek	-9.0243
▁yunan	-9.02469
▁yabancı	-9.02545
▁açıkladı	-9.02563
▁sezonunda	-9.02885
▁doğrudan	-9.02913
ır	-9.03114
▁etki	-9.03254
▁tarih	-9.03278
ması	-9.03479
▁almıştır	-9.03826
▁video	-9.03854
▁hükûmet	-9.04141
zi	-9.04216
gen	-9.04414
▁sağlık	-9.04415
larıyla	-9.04496
▁üzerinden	-9.04539
▁100	-9.04748
▁sonrası	-9.04843
der	-9.04965
▁ses	-9.05116
▁at	-9.05161
▁isimli	-9.05192
▁v	-9.05405
▁grubun	-9.05803
▁kitap	-9.05855
▁sistem	-9.05861
▁oyun	-9.05955
▁sağ	-9.05966
▁örnek	-9.05985
▁gece	-9.06107
za	-9.06386
▁katı	-9.06572
▁23	-9.06973
▁yüzyıl	-9.07033
▁etkili	-9.07244
▁kardeşi	-9.07248
▁başlayan	-9.07596
▁derece	-9.07718
sız	-9.07721
▁alanı	-9.07727
dür	-9.07821
oğlu	-9.07839
▁kan	-9.07906
▁göç	-9.0797
▁zor	-9.08039
▁işgal	-9.08159
▁kişinin	-9.08243
▁kız	-9.08245
▁nüfus	-9.08328
▁fark	-9.0838
▁kurulan	-9.08538
▁yüz	-9.08557
▁22	-9.08654
▁mevcut	-9.08673
▁verir	-9.08945
▁kendisi	-9.09024
▁çalışan	-9.09027
▁babası	-9.09105
▁ünlü	-9.09169
▁x	-9.09436
lama	-9.09579
▁formula	-9.09583
▁belirtti	-9.09782
▁verildi	-9.09866
▁müslüman	-9.09986
▁kullanarak	-9.10073
▁an	-9.10104
▁tahmin	-9.10397
▁top	-9.10625
▁bölgesi	-9.10648
nü	-9.1067
▁dolayısıyla	-9.10718
▁süper	-9.10739
ko	-9.10762
▁19	-9.10791
▁edilmiş	-9.10842
▁yapıldı	-9.10903
▁katıldı	-9.11122
co	-9.11207
▁kesin	-9.11251
▁neredeyse	-9.11251
▁sayesinde	-9.1159
▁g	-9.11664
▁üyesi	-9.11736
▁27	-9.1181
▁şehri	-9.11905
▁yıldız	-9.11919
lerdir	-9.11958
▁anlamına	-9.11968
▁cols	-9.12031
▁yönetimi	-9.12146
▁kutsal	-9.122
▁%	-9.12233
mesi	-9.12341
▁21	-9.12359
▁çift	-9.124
▁değer	-9.12405
▁tarım	-9.1242
▁etmektedir	-9.12589
▁toprak	-9.12624
▁gücü	-9.12867
-19	-9.13023
▁kültür	-9.13075
ur	-9.13348
▁kendisini	-9.13363
▁giriş	-9.1358
▁yana	-9.13823
▁bölgede	-9.14109
▁asker	-9.14174
▁ara	-9.14393
sinin	-9.1442
vi	-9.14439
▁nehri	-9.1452
▁aile	-9.14726
▁belediye	-9.14756
▁pers	-9.15056
▁bundan	-9.15106
▁etmeye	-9.15115
lardır	-9.15421
lardı	-9.15469
▁mi	-9.15516
▁onları	-9.15532
▁olmadığını	-9.15532
▁çocuk	-9.15666
▁sol	-9.15723
▁ödülü	-9.15733
as	-9.15765
▁konusu	-9.15983
▁ışık	-9.16049
▁defa	-9.16071
▁açısından	-9.16351
▁spor	-9.16366
▁üretim	-9.16396
▁saldırı	-9.16545
▁hala	-9.16592
▁ateş	-9.1666
▁durumu	-9.1672
▁tercih	-9.16871
maktadır	-9.1703
▁uzak	-9.17046
▁2008	-9.17195
▁çalıştı	-9.17288
▁ankara	-9.17604
▁irak	-9.17639
th	-9.17755
▁antik	-9.18114
▁adıyla	-9.18121
ip	-9.18175
▁dalga	-9.18266
▁yavaş	-9.18602
▁dikkat	-9.18652
▁yazdı	-9.18726
liğe	-9.18822
▁28	-9.18901
▁böyle	-9.1907
▁fenerbahçe	-9.19243
▁anda	-9.19261
▁açtı	-9.19288
▁2010	-9.1937
▁karşılık	-9.19428
▁süren	-9.19528
▁olmadığı	-9.19757
▁yolu	-9.19776
▁model	-9.20254
▁single	-9.20332
▁yılının	-9.20506
▁krallığı	-9.20701
▁ortalama	-9.20837
cu	-9.20872
▁26	-9.20947
▁döndü	-9.20955
▁gerekli	-9.21019
▁terk	-9.2125
ak	-9.21326
▁olma	-9.21456
▁arka	-9.21654
▁bölümü	-9.21679
▁haçlı	-9.21732
men	-9.21908
▁çevre	-9.21929
▁yüzden	-9.21965
len	-9.2199
▁silah	-9.22002
▁p	-9.22245
ul	-9.22294
▁başlamıştır	-9.22359
▁başlar	-9.22521
▁dini	-9.2259
unu	-9.22595
▁yılına	-9.22749
▁yedi	-9.22768
▁yayın	-9.22794
▁adet	-9.228
▁ülkede	-9.22897
▁normal	-9.22951
sen	-9.23188
▁gaz	-9.23273
ver	-9.2329
▁sınır	-9.23313
▁can	-9.23349
▁sebep	-9.23372
▁kaynak	-9.23465
▁durumda	-9.2347
▁sezonu	-9.23509
▁muharebesi	-9.23535
▁plan	-9.23565
go	-9.2357
▁bar	-9.23917
ist	-9.24026
▁şehrin	-9.24058
kan	-9.2407
▁milyar	-9.24176
▁ettiler	-9.24465
▁edilmesi	-9.24488
▁oluşur	-9.24781
▁japonya	-9.2501
▁[	-9.251
yen	-9.25152
▁bilimsel	-9.25232
▁san	-9.25238
▁sahne	-9.25575
▁h	-9.25696
▁dışı	-9.25714
▁resmî	-9.25775
▁sabit	-9.25793
▁yapmak	-9.25807
lığa	-9.25863
▁hristiyan	-9.25883
▁re	-9.26197
▁olduğuna	-9.26236
▁popüler	-9.26476
▁adam	-9.26607
▁madde	-9.26706
▁hindistan	-9.26756
▁başlarında	-9.26771
kar	-9.26805
▁fiziksel	-9.26977
mek	-9.27001
lo	-9.27028
▁metal	-9.27209
çı	-9.27216
ley	-9.27318
▁2012	-9.27323
▁19.	-9.27502
▁bazen	-9.27569
▁yazar	-9.27583
gi	-9.27629
▁ilgi	-9.2765
▁geç	-9.27673
▁aslında	-9.27678
kları	-9.27799
▁kent	-9.278
▁adına	-9.27866
▁satın	-9.27871
▁çalışmaları	-9.27962
▁van	-9.2798
▁öldü	-9.28365
sının	-9.28371
▁filmi	-9.2845
▁dördüncü	-9.28631
▁ölüm	-9.28637
▁klasik	-9.28641
▁kurulu	-9.28648
▁taş	-9.28699
▁bölümünde	-9.28754
▁teslim	-9.28817
sinde	-9.28897
▁aday	-9.28969
▁canlı	-9.29011
ına	-9.2923
ında	-9.29345
▁kişilik	-9.2941
▁filmin	-9.29458
▁gösteren	-9.29568
▁mümkün	-9.29691
▁kore	-9.29718
▁içerir	-9.29765
▁alma	-9.29867
▁alarak	-9.29891
▁biçimde	-9.29996
spor	-9.30086
▁29	-9.30121
▁arkadaşı	-9.30135
▁petrol	-9.30246
▁almaktadır	-9.30561
▁ben	-9.30589
▁kar	-9.30831
▁hitler	-9.30865
mer	-9.30907
ner	-9.30958
▁yoluyla	-9.31117
▁demir	-9.31223
▁gösterir	-9.31249
▁insanların	-9.31262
▁almak	-9.313
mo	-9.31344
▁hükûmeti	-9.3143
|	-9.31503
pa	-9.31543
fi	-9.31562
dığı	-9.31773
▁aşırı	-9.31798
▁ciddi	-9.31805
▁yoktur	-9.3201
▁ticari	-9.32283
▁televizyon	-9.32538
▁mustafa	-9.32674
▁yandan	-9.32755
▁halinde	-9.32807
▁yaz	-9.3299
fa	-9.33077
▁alınan	-9.33373
▁ziyaret	-9.33406
▁tespit	-9.33468
▁belli	-9.33474
▁sağladı	-9.33518
▁işaret	-9.33538
▁geçirdi	-9.33669
▁2013	-9.3372
spanya	-9.33816
▁james	-9.33901
▁itibarıyla	-9.33944
▁mal	-9.33969
▁başta	-9.33983
▁vi	-9.33989
diği	-9.33993
▁sanayi	-9.34081
ek	-9.34092
ça	-9.34204
▁veri	-9.34226
▁dili	-9.34292
ğı	-9.34299
or	-9.34364
ının	-9.34455
▁edilmektedir	-9.34642
▁attı	-9.34724
▁paris	-9.34772
▁kudüs	-9.34853
▁kuruldu	-9.34894
▁bugün	-9.34909
▁seçim	-9.34917
ad	-9.34959
▁bazıları	-9.34967
▁muhammed	-9.35025
▁zarar	-9.35033
▁kendine	-9.35061
▁kur	-9.35181
▁zengin	-9.35191
▁karakter	-9.35197
▁olay	-9.35232
▁başarı	-9.35272
▁albümün	-9.3535
tik	-9.35435
▁hedef	-9.3562
leme	-9.35623
▁britanya	-9.35665
▁ertesi	-9.35673
▁ortadan	-9.35732
▁kızıl	-9.35733
çe	-9.35838
▁yaş	-9.35936
▁şöyle	-9.35965
▁gerektiğini	-9.36001
▁arası	-9.36049
▁olacak	-9.3608
han	-9.36085
▁gösterdi	-9.36325
▁yılın	-9.36346
▁askerî	-9.36595
▁2011	-9.36646
▁manyetik	-9.36674
▁yıllarında	-9.3675
▁final	-9.36862
▁2014	-9.36985
▁yayınlandı	-9.37005
▁öncesi	-9.37148
▁iken	-9.37232
▁sivil	-9.373
▁mu	-9.37471
▁sağlamak	-9.375
▁2009	-9.37659
▁esas	-9.37717
ğ	-9.37812
▁olmuş	-9.37886
▁ismi	-9.37907
▁dakika	-9.37991
▁ceza	-9.38019
▁şah	-9.38084
–	-9.38172
▁üyeleri	-9.38174
▁gemi	-9.38231
sında	-9.3843
▁araya	-9.3848
▁insanlar	-9.38523
sh	-9.3861
▁tehdit	-9.38664
ngilizce	-9.38684
▁onların	-9.38857
▁koruma	-9.38872
▁parça	-9.39072
▁cumhuriyet	-9.3913
▁dönemin	-9.39133
▁kurdu	-9.39209
▁radyo	-9.39278
▁kaynağı	-9.39645
ly	-9.3985
▁polonya	-9.39861
▁istedi	-9.39933
▁azerbaycan	-9.40176
▁etmiş	-9.40192
▁göstermektedir	-9.4038
van	-9.4045
bo	-9.40488
▁düzenlenen	-9.40748
▁sert	-9.40759
▁ulaştı	-9.40761
▁20.	-9.40958
▁eş	-9.41012
▁hareketi	-9.41049
▁alındı	-9.41061
▁sefer	-9.41128
▁kararı	-9.41161
▁oynanan	-9.41336
▁cinsel	-9.41379
▁yerini	-9.41413
▁komünist	-9.41428
▁...	-9.41443
▁kültürel	-9.417
▁vergi	-9.41765
▁getirdi	-9.41805
▁başkan	-9.41819
▁piyasaya	-9.41842
▁50	-9.41866
▁hızla	-9.41967
▁kırmızı	-9.42122
▁2006	-9.42384
so	-9.424
▁gizli	-9.42458
▁üye	-9.42585
▁yunanistan	-9.42662
▁sağlar	-9.42702
▁görülür	-9.42763
▁ekonomi	-9.42971
▁şirketi	-9.42992
▁londra	-9.43031
ol	-9.43071
▁çoğunlukla	-9.43103
▁sıvı	-9.43112
▁ilişki	-9.43266
▁sene	-9.43415
▁çalışmalar	-9.43541
▁içindeki	-9.43637
▁etmesi	-9.4382
▁me	-9.43974
▁kazanan	-9.44005
▁–	-9.44144
▁birlikleri	-9.44263
▁bölüm	-9.44285
5	-9.44381
▁suç	-9.44776
ecek	-9.44822
▁kullanımı	-9.44836
▁karşın	-9.44854
▁önünde	-9.44955
q	-9.45072
▁bakanlığı	-9.45115
ebilir	-9.45146
▁yayınlanan	-9.45214
lük	-9.4526
▁orada	-9.45321
▁tarihli	-9.45412
▁aksine	-9.45508
▁sağlayan	-9.45657
▁ayrıldı	-9.45659
▁dedi	-9.45661
▁bakanı	-9.45936
lanmış	-9.46009
tü	-9.46016
▁co	-9.4604
▁be	-9.46089
0	-9.46209
▁günlük	-9.46347
▁hakkı	-9.4652
talyan	-9.46667
▁test	-9.46678
▁hak	-9.46753
▁söyler	-9.46862
▁avustralya	-9.46987
▁kişisel	-9.47012
▁eşit	-9.47018
▁basit	-9.47054
▁bilgisayar	-9.47099
▁hazır	-9.471
▁değildi	-9.47138
▁yapmıştır	-9.47233
▁motor	-9.47243
▁2007	-9.47304
▁sınıf	-9.47333
▁yük	-9.4736
▁taşıyan	-9.47381
mıştı	-9.47439
gan	-9.47489
▁anlaşma	-9.47578
▁tedavi	-9.47594
ze	-9.47625
▁kızı	-9.47648
▁polis	-9.47666
▁sarı	-9.47692
ği	-9.47716
ck	-9.47789
▁standart	-9.47828
ry	-9.47868
▁ilişkin	-9.47954
▁sosyalist	-9.48027
▁emir	-9.48033
abilir	-9.481
▁engel	-9.48126
▁görevi	-9.48217
▁sebebiyle	-9.48255
▁avusturya	-9.4837
▁annesi	-9.48373
ng	-9.48415
▁yayınladı	-9.4848
land	-9.48484
▁küresel	-9.48537
▁av	-9.48558
am	-9.48572
▁ince	-9.48763
▁antlaşması	-9.48767
▁forma	-9.48772
▁çizgi	-9.4878
▁nedeni	-9.48787
▁yazı	-9.49253
20	-9.49287
▁yazdığı	-9.49476
▁savaşın	-9.49676
▁gereken	-9.49701
▁arada	-9.49742
▁2005	-9.49767
▁‘	-9.49841
▁yüzünden	-9.50043
▁orijinal	-9.50064
▁dönüş	-9.50109
▁yaşadığı	-9.50132
▁tane	-9.50155
▁kadınlar	-9.50157
▁yanlış	-9.50206
▁for	-9.50227
izm	-9.50289
▁geçiş	-9.50301
▁araç	-9.50405
▁hayvan	-9.50412
▁bölgesinde	-9.5042
▁rock	-9.5045
▁amacı	-9.50593
▁yerleşim	-9.50618
▁gelmiştir	-9.50758
▁lideri	-9.5083
inden	-9.50917
▁silahlı	-9.51021
▁baskı	-9.51081
▁eline	-9.51165
▁teşvik	-9.51208
▁31	-9.51229
▁çağ	-9.51275
▁aktif	-9.5128
po	-9.5148
▁giderek	-9.51511
▁yüzde	-9.51542
fe	-9.51584
▁4.	-9.51594
acak	-9.51693
▁sekiz	-9.51706
▁do	-9.51731
▁performans	-9.51895
▁aracılığıyla	-9.51919
▁bunlardan	-9.52013
▁henüz	-9.52029
▁darbe	-9.52063
▁sürdü	-9.52125
▁kulüp	-9.52182
▁halka	-9.52202
▁adlandırılan	-9.52271
lin	-9.52305
her	-9.52398
▁seçildi	-9.5247
▁kuvvet	-9.52695
▁ordusunun	-9.52804
▁anti	-9.52853
miz	-9.52861
▁komutanı	-9.5288
▁ada	-9.52939
▁siyah	-9.5303
▁tip	-9.53228
▁japon	-9.53341
▁haber	-9.53505
▁anayasa	-9.53517
▁j	-9.53593
▁üretimi	-9.53597
▁ila	-9.53655
▁kimyasal	-9.53733
▁oldukları	-9.5386
▁takımın	-9.53872
▁transfer	-9.53956
▁yapılmıştır	-9.53961
▁2015	-9.53965
▁talep	-9.54042
▁biridir	-9.54095
▁kuantum	-9.5411
▁politik	-9.54112
▁zayıf	-9.54165
▁ikisi	-9.54171
br	-9.5419
▁artan	-9.54307
▁yapısı	-9.54418
▁yerde	-9.54459
▁no	-9.54476
▁özellikleri	-9.54479
▁devletler	-9.54642
6	-9.54665
▁yerli	-9.54762
▁halkın	-9.54838
▁so	-9.55068
▁yeterli	-9.55085
▁federal	-9.55138
▁oluşturan	-9.55209
▁uygulama	-9.55223
▁muhtemelen	-9.5524
▁listesinde	-9.55318
▁toplum	-9.55355
▁kemal	-9.55377
ger	-9.5561
▁gerek	-9.55647
▁yan	-9.55679
lendi	-9.55849
▁tahta	-9.55981
lanan	-9.56007
▁kanada	-9.56014
▁toplumsal	-9.56353
▁çıkmıştır	-9.56634
▁3.	-9.56723
30	-9.56761
▁vermiştir	-9.56827
▁teklif	-9.56902
▁bilinir	-9.57187
▁başarısız	-9.574
iz	-9.57438
▁nükleer	-9.57565
ja	-9.57612
▁öz	-9.57657
▁alanında	-9.57673
▁hakları	-9.57718
▁şirket	-9.57725
▁okul	-9.5775
▁soğuk	-9.5778
▁isim	-9.57811
lenmiş	-9.57817
com	-9.58072
▁berlin	-9.58272
▁programı	-9.58277
ıp	-9.58278
▁yılından	-9.58316
nce	-9.58409
▁çıkış	-9.58456
▁konser	-9.58464
▁mehmet	-9.58594
▁teorisi	-9.58639
▁nüfusu	-9.58667
▁dolar	-9.58728
▁gürcistan	-9.58798
▁kamu	-9.58815
▁olduğundan	-9.58887
layan	-9.58982
▁asıl	-9.59059
▁kıbrıs	-9.59076
▁genelde	-9.59138
▁geçmiş	-9.59279
▁dile	-9.59338
▁gitti	-9.59461
▁biraz	-9.59479
ia	-9.59507
▁atina	-9.5962
▁içine	-9.59651
▁ölümünden	-9.59734
▁sonradan	-9.59794
▁alanda	-9.59795
ah	-9.59921
▁yapar	-9.59984
▁aralarında	-9.59985
▁edilebilir	-9.59996
▁kitabı	-9.6
▁--	-9.60045
▁ailesi	-9.60073
▁konseyi	-9.60177
▁halkı	-9.60254
maya	-9.60362
▁eyalet	-9.60369
▁kaybetti	-9.60565
▁piyade	-9.60627
▁puan	-9.60657
pi	-9.60759
▁40	-9.60799
per	-9.60815
▁yere	-9.60843
▁ihtiyaç	-9.6087
▁olumlu	-9.60882
▁sonlarında	-9.61123
▁geçici	-9.61145
▁önem	-9.61152
▁ermeni	-9.61207
▁cephesi	-9.6123
▁ar	-9.61289
▁5.	-9.6133
▁maruz	-9.61388
▁yapmaya	-9.61504
▁derin	-9.61629
▁pa	-9.61697
▁yaşanan	-9.61736
▁hafif	-9.61742
▁giren	-9.61755
▁metre	-9.61812
ül	-9.61897
▁etnik	-9.61906
▁kişiler	-9.61921
yon	-9.62045
▁sanatçı	-9.62058
ser	-9.62066
▁hukuk	-9.62106
▁oluşturur	-9.62116
▁yaparak	-9.62123
kleri	-9.62138
nsan	-9.62152
▁bitki	-9.62155
▁sözleşme	-9.62259
▁üniversite	-9.62319
▁doğum	-9.62362
ok	-9.62384
▁görüş	-9.6247
▁kongre	-9.62563
▁ödülleri	-9.62668
▁onlara	-9.62696
▁civarında	-9.62711
ty	-9.62715
▁pi	-9.62798
mar	-9.62867
▁kale	-9.62983
▁beşiktaş	-9.63046
▁donanması	-9.63089
▁bölgeye	-9.63089
▁kaya	-9.63099
▁akdeniz	-9.63242
▁bo	-9.63302
▁elinde	-9.6333
▁ab	-9.6336
sinden	-9.63564
▁yasa	-9.63603
▁2004	-9.63625
▁ağ	-9.6365
▁oynadı	-9.63661
▁eşi	-9.63673
▁yılda	-9.63882
▁ısı	-9.63969
▁bas	-9.63976
▁pazar	-9.64054
▁teknoloji	-9.64058
ren	-9.64143
▁başardı	-9.64148
▁yapma	-9.64209
▁sahipti	-9.64246
▁2016	-9.64253
var	-9.6439
▁görülen	-9.6442
▁iletişim	-9.6451
iyle	-9.64515
▁adamı	-9.64526
▁yönünde	-9.6458
▁şarkısı	-9.64585
▁değişik	-9.64596
liğini	-9.64597
▁yapılmış	-9.64763
10	-9.64786
tal	-9.64818
▁kap	-9.64819
▁yıllar	-9.64839
▁w	-9.64844
▁william	-9.64859
zo	-9.64892
▁yeri	-9.65157
▁başkenti	-9.65219
2'	-9.65251
▁öğrenci	-9.6533
▁devletin	-9.65546
▁sıcak	-9.65599
▁baba	-9.6567
pe	-9.65706
▁yaşında	-9.65748
▁david	-9.65802
ay	-9.65815
▁dr	-9.65876
▁proje	-9.65905
▁yasal	-9.65937
▁süleyman	-9.66162
▁kendisinin	-9.66253
▁200	-9.66301
▁çapında	-9.66352
▁bulunmuştur	-9.66377
din	-9.66483
yor	-9.66542
▁milletler	-9.66545
▁gelişmiş	-9.66661
▁birlik	-9.66708
▁meclisi	-9.66746
▁pro	-9.66749
▁hollanda	-9.66783
▁seri	-9.66802
▁saf	-9.66936
▁seferi	-9.67113
▁müdahale	-9.67172
▁dna	-9.6732
▁yüzey	-9.67359
id	-9.67374
▁kol	-9.67389
▁yurt	-9.67432
▁profesyonel	-9.67453
ev	-9.6746
▁tasarım	-9.67787
▁aracı	-9.67852
fer	-9.67899
▁tepki	-9.67911
ov	-9.67931
ünü	-9.6794
şi	-9.67992
ji	-9.68053
tür	-9.68293
▁boş	-9.68333
▁ettiğini	-9.68382
▁rapor	-9.68531
▁saha	-9.68583
▁başlangıçta	-9.68593
▁yapımı	-9.68638
dığını	-9.68699
▁hayatı	-9.68703
iye	-9.68721
▁iklim	-9.68736
▁as	-9.68766
▁öte	-9.6885
bra	-9.68933
▁der	-9.68937
▁karmaşık	-9.69029
▁esir	-9.69133
▁adında	-9.69169
▁taarruz	-9.69329
▁kullanan	-9.69418
dü	-9.6947
sk	-9.6949
▁kilisesi	-9.6951
8	-9.69522
▁hız	-9.69533
▁ad	-9.69598
▁roman	-9.69598
▁george	-9.69693
▁hal	-9.69721
▁kayıt	-9.69722
▁türü	-9.69734
▁dar	-9.69785
▁çoğunluğu	-9.69995
ru	-9.70007
ör	-9.7011
▁edip	-9.70177
▁robert	-9.70207
▁hayatta	-9.7028
▁katolik	-9.70315
▁güzel	-9.70342
ku	-9.70394
50	-9.70395
▁zamanlarda	-9.70504
mişti	-9.70552
▁içi	-9.70619
▁noktası	-9.70642
▁idam	-9.70656
▁nüfusun	-9.70661
lerdi	-9.70676
▁baskın	-9.70681
▁kalma	-9.70704
▁yazarı	-9.70726
▁malzeme	-9.70777
▁filistin	-9.7086
▁olmadan	-9.71009
let	-9.71033
▁gerekir	-9.71036
▁mo	-9.71097
▁cevap	-9.71165
▁1990'	-9.71222
▁düzenli	-9.71279
▁kıyı	-9.71295
yum	-9.71499
▁medya	-9.71519
▁mağlup	-9.71593
san	-9.71603
lılar	-9.71724
▁gördü	-9.71761
▁durumunda	-9.71807
▁önceden	-9.71864
yken	-9.7211
-1	-9.72189
▁(18	-9.72206
▁kanıt	-9.72345
ez	-9.72452
ster	-9.72496
)"	-9.72625
▁isteyen	-9.72651
▁buldu	-9.72676
▁mevcuttur	-9.72717
▁kanun	-9.72738
▁açıklama	-9.729
▁artış	-9.73067
lanır	-9.73092
▁bağ	-9.731
▁etkileri	-9.73149
▁özelliği	-9.73198
▁6.	-9.73286
▁altındaki	-9.73353
lenen	-9.73401
▁yargı	-9.73489
▁akım	-9.73569
▁yarış	-9.73707
sveç	-9.73812
▁giden	-9.73881
▁sonuçlar	-9.74032
▁birbirine	-9.74034
▁düşman	-9.74125
▁pop	-9.7423
▁brezilya	-9.74247
▁güçleri	-9.74251
ts	-9.74339
▁köle	-9.74405
▁stüdyo	-9.74424
▁aşağı	-9.74453
▁2011'	-9.74456
▁von	-9.74482
▁hakkındaki	-9.74496
▁kullanılmıştır	-9.74589
▁gelişme	-9.74632
▁kütle	-9.74667
▁anne	-9.74669
▁windows	-9.74719
▁sınırları	-9.74739
▁charles	-9.74853
▁kullanıldı	-9.74871
▁fa	-9.75046
▁meclis	-9.75048
▁olumsuz	-9.75083
▁henry	-9.75089
▁kilise	-9.7509
▁sıcaklık	-9.75165
▁duyurdu	-9.75338
▁miktarda	-9.75368
▁bit	-9.7548
▁sınırlı	-9.7555
▁saray	-9.75557
▁kalmıştır	-9.75667
▁sezonun	-9.75686
asyon	-9.75719
!	-9.75727
▁verme	-9.75848
▁modeli	-9.75894
▁birisi	-9.7598
▁iv	-9.76
▁1980'	-9.76027
▁konuşma	-9.76075
▁michael	-9.76087
he	-9.76197
▁çağı	-9.76225
▁cumhurbaşkanı	-9.76312
don	-9.76315
▁vermek	-9.7658
▁uçak	-9.76636
▁hücre	-9.76701
▁tarihsel	-9.76935
can	-9.76965
19	-9.77001
▁anlamda	-9.77018
▁getirildi	-9.77059
▁ruh	-9.77173
▁olası	-9.77187
▁aşağıdaki	-9.77238
tar	-9.77396
▁kendilerini	-9.77455
▁kullanılarak	-9.77493
▁karadeniz	-9.77571
▁web	-9.77685
▁kuş	-9.77771
meye	-9.77815
▁2003	-9.77827
▁maçın	-9.77871
ment	-9.7789
▁ederken	-9.77913
▁maçına	-9.77935
▁işlem	-9.77944
▁yeşil	-9.77946
▁türkçe	-9.77948
▁et	-9.78132
▁ka	-9.78139
▁başlıca	-9.78188
â	-9.78255
▁beşinci	-9.78259
▁olacaktır	-9.78342
▁kullanılabilir	-9.78353
▁ukrayna	-9.78391
▁wwe	-9.78401
liğin	-9.7843
▁2008'	-9.78488
9	-9.78661
▁tur	-9.78695
ut	-9.78714
▁gruplar	-9.78717
▁gelmektedir	-9.78741
▁amerikalı	-9.78784
▁denir	-9.78832
▁çıkardı	-9.78864
▁gösteri	-9.78934
▁kontrolü	-9.7894
landı	-9.78989
▁kullandı	-9.79022
▁po	-9.79211
▁sonuna	-9.79319
▁renk	-9.79326
▁sorumlu	-9.79359
▁alternatif	-9.79395
▁gıda	-9.79423
▁devrimi	-9.79449
▁ölümü	-9.79452
▁etkin	-9.79479
▁yükseldi	-9.79578
▁yakıt	-9.79614
▁düştü	-9.79639
▁önüne	-9.7965
▁hanedanı	-9.79906
▁gören	-9.79931
dy	-9.80044
▁bakımından	-9.80044
▁karbon	-9.80055
▁con	-9.80069
▁hu	-9.8012
▁moskova	-9.80181
▁ayı	-9.80184
▁önde	-9.80193
▁vali	-9.802
▁yasası	-9.80222
▁şampiyonluğu	-9.80245
▁tipik	-9.80258
▁uefa	-9.80259
▁hayat	-9.80304
▁dava	-9.8033
▁papa	-9.8037
▁oynadığı	-9.80417
▁gerçekleşen	-9.80433
▁bakış	-9.80433
▁ödül	-9.805
▁ilişkiler	-9.80542
▁görülmektedir	-9.80581
▁olmaya	-9.80587
▁politika	-9.80635
▁tiyatro	-9.80644
▁richard	-9.80648
▁genelinde	-9.80692
▁bıraktı	-9.80776
▁1970'	-9.8081
off	-9.80816
▁değişiklik	-9.80825
▁2002	-9.80851
▁denizi	-9.80859
▁cam	-9.80882
▁tank	-9.80954
▁2010'	-9.80994
▁zafer	-9.81026
▁potansiyel	-9.81047
kullanılmaktadır	-9.81086
unun	-9.81097
▁düşünce	-9.81097
▁nazi	-9.81234
▁imparatorluk	-9.81273
▁halde	-9.81315
▁vadisi	-9.81345
%	-9.8137
ıyordu	-9.8139
▁kopya	-9.81426
▁zamanlar	-9.81471
▁şarap	-9.81516
layarak	-9.81567
é	-9.81669
ğını	-9.81723
▁sorun	-9.81849
rlanda	-9.8187
▁geçer	-9.82012
▁kraliyet	-9.82013
▁tarzı	-9.82111
sü	-9.8213
▁eser	-9.82211
▁açıkça	-9.82273
▁gönderdi	-9.8242
▁yola	-9.8248
mparator	-9.82565
▁kendilerine	-9.82598
▁tv	-9.82626
?	-9.82651
▁işbirliği	-9.82665
▁katılan	-9.82669
▁ahmet	-9.82687
bar	-9.82696
▁açıdan	-9.82731
▁finalde	-9.828
▁okulu	-9.82838
▁art	-9.82857
▁başladılar	-9.82891
▁demokratik	-9.82902
▁bağlantı	-9.82903
zmir	-9.82992
▁kapsamında	-9.83034
▁babasının	-9.83121
▁adası	-9.83164
diğini	-9.83235
▁hangi	-9.83246
wa	-9.83269
▁süreci	-9.83283
brahim	-9.83351
▁10.	-9.8336
▁park	-9.83372
▁hint	-9.83425
▁bölgenin	-9.83474
▁şampiyonu	-9.83499
▁karanlık	-9.83522
▁çalışması	-9.83543
▁grek	-9.8356
şa	-9.83646
▁2009'	-9.83651
▁geliştirme	-9.83705
▁he	-9.83713
ac	-9.83757
▁telefon	-9.83795
▁belirgin	-9.83915
uz	-9.84122
90	-9.84132
▁kullandığı	-9.84159
▁örgütü	-9.8417
▁galibiyet	-9.84383
▁meksika	-9.84419
▁sezonda	-9.8445
▁projesi	-9.84501
▁st	-9.84583
▁kas	-9.84586
_	-9.84626
▁2012'	-9.84651
ker	-9.84699
spanyol	-9.84707
▁sisteminin	-9.84736
gerçekleştirilen	-9.84736
▁2014'	-9.84811
ından	-9.84839
▁kapalı	-9.84894
▁ko	-9.84904
▁göstermiştir	-9.84904
▁takımının	-9.84909
ho	-9.84942
▁zamanında	-9.84969
▁yapılması	-9.85028
▁örgüt	-9.85049
▁bölgesel	-9.85112
▁şampiyon	-9.85128
▁büyüme	-9.85165
▁görüntü	-9.85185
▁edebiyat	-9.85206
▁etrafında	-9.85237
▁yöntem	-9.85522
▁verilmiştir	-9.85577
▁yemek	-9.8558
▁değeri	-9.85589
▁öldürüldü	-9.85792
▁yapılır	-9.85818
▁çekildi	-9.85821
▁$	-9.85932
ss	-9.85986
▁il	-9.8603
▁planı	-9.86065
▁savaşa	-9.86104
▁belge	-9.86113
▁oyunu	-9.86179
▁süvari	-9.86192
▁hayatını	-9.86204
▁üretilen	-9.86223
▁almış	-9.86287
je	-9.86315
ydu	-9.86317
leşme	-9.86327
▁karşıya	-9.86409
iyordu	-9.86425
▁yahudiler	-9.8643
▁devrim	-9.86492
▁imza	-9.86501
ret	-9.86503
▁dağı	-9.8656
▁olmasını	-9.86621
▁yaşlı	-9.86644
▁gök	-9.86666
▁gelecek	-9.86688
▁attığı	-9.86767
▁başlandı	-9.86773
bel	-9.86817
hi	-9.86843
▁kullanım	-9.86893
vo	-9.86904
▁çözüm	-9.86937
▁müziği	-9.86967
▁kuru	-9.86971
▁mali	-9.87026
▁mar	-9.8705
ıyor	-9.87096
▁imparator	-9.87097
▁sistemleri	-9.87101
▁°	-9.87107
▁2007'	-9.8723
▁internet	-9.87267
▁işçi	-9.87285
▁kadınların	-9.87341
▁eseri	-9.87373
▁zamanla	-9.87476
▁korumak	-9.87489
▁bildirdi	-9.87582
▁otomobil	-9.87592
▁donanma	-9.87596
mız	-9.87666
▁reddetti	-9.8776
▁adalet	-9.87802
▁başbakan	-9.87804
▁desteği	-9.87866
ham	-9.87885
▁olaylar	-9.87961
▁hızı	-9.88131
▁ata	-9.88236
▁dans	-9.88244
▁ba	-9.88245
▁ediyor	-9.88267
▁fikir	-9.88434
▁mimari	-9.88462
▁davet	-9.88544
▁olacağını	-9.88557
▁paul	-9.88586
sıyla	-9.8859
▁bilinmektedir	-9.88648
▁kolay	-9.88747
hane	-9.88761
acağı	-9.88814
▁mavi	-9.88825
res	-9.88898
▁2001	-9.88988
▁edildiği	-9.89036
▁kökenli	-9.89048
▁dayalı	-9.89056
ana	-9.89085
▁varlığı	-9.89138
tra	-9.89147
▁bölgelerde	-9.89162
▁durumlarda	-9.8919
25	-9.89196
ey	-9.8921
nca	-9.89237
▁kulübü	-9.8925
▁ayak	-9.8929
▁tartışma	-9.89314
▁meydan	-9.8934
▁yanıt	-9.89364
▁ilişkileri	-9.8941
lanma	-9.8949
▁bölgedeki	-9.89533
met	-9.89727
▁yapmış	-9.89787
▁şarkıcı	-9.89803
▁başkent	-9.89839
▁dünyaya	-9.89987
▁görsel	-9.90013
▁pe	-9.90076
▁gözlem	-9.90108
▁venedik	-9.90125
▁geldiği	-9.90206
ian	-9.90404
▁atatürk	-9.90412
▁kristal	-9.90453
▁sezar	-9.90527
▁dolu	-9.90532
▁gider	-9.90545
▁yirmi	-9.90566
-2	-9.90582
▁ton	-9.90613
▁elektron	-9.90625
▁bağımsızlık	-9.90651
▁derecede	-9.9066
▁analiz	-9.90721
▁roket	-9.90759
▁birleşmiş	-9.90779
▁çekti	-9.9079
up	-9.908
ic	-9.90823
▁ürün	-9.90859
mekteydi	-9.90928
▁ikili	-9.90934
▁yağ	-9.9096
▁kullanılması	-9.90994
▁sıklıkla	-9.90998
▁hakim	-9.91183
▁dünyada	-9.91224
▁eğitimi	-9.9124
▁kısmen	-9.91263
▁kalesi	-9.91361
15	-9.91375
sviçre	-9.91466
▁metin	-9.91471
▁birimi	-9.91661
▁selçuklu	-9.9181
▁mektup	-9.91812
▁isyan	-9.9182
▁sürede	-9.91871
▁nokta	-9.91872
▁yukarı	-9.91878
▁kürt	-9.91895
ot	-9.91954
70	-9.91968
▁cm	-9.92
▁anlaşması	-9.92064
7	-9.92075
▁buz	-9.92228
▁thomas	-9.92308
ben	-9.92317
▁taraf	-9.92344
mu	-9.92467
▁toprakları	-9.92571
▁harry	-9.92578
▁benzeri	-9.9263
▁öncesinde	-9.92643
▁katkıda	-9.92746
▁çalışır	-9.9275
▁kal	-9.93133
bil	-9.93139
▁world	-9.9315
▁şimdi	-9.9319
▁kişilerin	-9.93377
-18	-9.93399
ron	-9.93416
‭	-9.93417
les	-9.9351
▁resim	-9.93514
▁arama	-9.93556
rak	-9.93568
▁satış	-9.93594
lanmıştır	-9.93684
▁mil	-9.93694
▁çağdaş	-9.93712
▁şampiyonası	-9.93722
▁faaliyet	-9.93809
▁hat	-9.93864
▁yaptıkları	-9.93874
▁cinsiyet	-9.93924
▁çekirdek	-9.93959
lenme	-9.93977
▁kullanır	-9.94014
▁kuvvetlerinin	-9.94025
▁adlandırılır	-9.94066
▁asist	-9.94069
▁ulaşım	-9.94118
▁2013'	-9.94166
▁süreç	-9.9417
ince	-9.94189
▁kullanma	-9.94234
kı	-9.94339
▁idare	-9.94357
▁mahkeme	-9.94487
▁düz	-9.94487
▁stalin	-9.94506
▁başlattı	-9.94509
▁uçuş	-9.94662
▁gücünü	-9.94713
▁şiddet	-9.9478
ür	-9.94825
▁beyin	-9.94846
▁kaza	-9.94865
60	-9.94935
▁saldırısı	-9.94956
gu	-9.94968
▁hastalık	-9.95079
örneğin	-9.95083
▁şam	-9.95185
▁akıl	-9.95185
eceği	-9.95192
▁insanları	-9.95227
▁yazılı	-9.95282
▁işi	-9.95294
▁şiddetli	-9.9534
▁bilgiler	-9.95394
▁ötürü	-9.95395
▁gruba	-9.95418
▁programında	-9.95423
▁dizisinde	-9.95463
▁city	-9.9547
▁basketbol	-9.95477
▁çocuğu	-9.95528
▁tarihçi	-9.95531
▁500	-9.95575
▁devre	-9.95595
▁ro	-9.95631
▁7.	-9.95678
▁asit	-9.95703
▁ku	-9.95757
▁tehlike	-9.95802
▁yaklaşım	-9.95804
▁2017	-9.9581
min	-9.95831
▁demiryolu	-9.95863
▁sınıfı	-9.95925
▁yayımlandı	-9.9599
▁hattı	-9.96046
▁teori	-9.96117
▁orman	-9.96154
dar	-9.96177
▁fizik	-9.96184
▁genetik	-9.96193
▁program	-9.96323
▁madonna	-9.96336
▁müzesi	-9.96337
▁oluşturduğu	-9.9634
▁güven	-9.96402
▁insanın	-9.9647
1'	-9.96523
▁doğa	-9.96679
▁yanına	-9.9668
▁mahkemesi	-9.96714
chi	-9.96731
▁kaynakları	-9.96761
▁amaçlı	-9.96768
▁go	-9.96781
▁köy	-9.96826
▁hasar	-9.97037
▁ermenistan	-9.97047
▁yorum	-9.97055
▁kod	-9.97058
▁çalışmaya	-9.97129
▁tel	-9.97136
11	-9.97212
▁kış	-9.97238
▁şiir	-9.97366
▁tepe	-9.97434
▁çek	-9.9748
▁duruma	-9.97566
▁karakteri	-9.9757
ris	-9.97603
▁ho	-9.97615
▁müttefik	-9.97616
18	-9.97683
▁olmuştu	-9.97751
lanması	-9.97787
▁jackson	-9.97793
▁bellek	-9.97803
nes	-9.97823
▁basın	-9.97853
▁sergi	-9.97868
▁şekil	-9.97881
▁almaya	-9.97882
▁yara	-9.97956
▁2006'	-9.97975
▁kurulmuştur	-9.97994
▁cephe	-9.97998
▁araştırmalar	-9.98008
▁dek	-9.9807
▁etmeyi	-9.98125
▁hikâye	-9.98128
▁dokuz	-9.98141
▁kısmını	-9.98189
▁zaten	-9.98203
▁parlamento	-9.98238
▁saygı	-9.98251
ize	-9.98314
▁kapı	-9.98326
▁tümeni	-9.98418
▁dışındaki	-9.98424
yse	-9.98478
▁=	-9.98487
lığını	-9.98511
▁ürünleri	-9.98602
▁dışişleri	-9.98624
▁fe	-9.98638
▁alanları	-9.98712
eceğini	-9.98781
▁bağlıdır	-9.98839
▁du	-9.98855
▁oyuncusu	-9.98891
▁felsefe	-9.98926
▁ser	-9.98949
ysa	-9.9895
em	-9.98972
▁yasak	-9.98992
▁binlerce	-9.99009
▁görüşü	-9.99038
▁ha	-9.99052
▁nba	-9.99065
ros	-9.99221
▁prens	-9.99254
▁hasta	-9.99263
▁özgür	-9.99289
▁süresi	-9.99292
▁kazan	-9.99299
▁filmde	-9.99302
▁dizinin	-9.99344
80	-9.99352
▁liman	-9.99375
▁esnasında	-9.99377
▁atom	-9.99451
▁rekabet	-9.99481
95	-9.99533
▁blok	-9.99639
▁olayı	-10.0005
▁ekibi	-10.0006
eri	-10.0007
á	-10.0018
▁or	-10.002
▁gayet	-10.0024
▁kupa	-10.0026
▁gelmiş	-10.0041
▁geçmiştir	-10.0042
▁yapım	-10.0043
▁çıktığı	-10.0049
▁acı	-10.0053
▁başarısı	-10.0054
▁dağ	-10.0055
▁hükümet	-10.0055
▁hasan	-10.0057
▁yayımlanan	-10.0062
▁değişim	-10.0062
▁yenerek	-10.0062
▁2015'	-10.0069
▁lider	-10.0072
▁2018	-10.0072
▁hüküm	-10.0077
▁tasvir	-10.0087
▁diğerleri	-10.0092
▁sebebi	-10.0094
▁imzaladı	-10.0095
▁ikna	-10.0105
▁sinema	-10.0108
▁şampiyonlar	-10.0109
acağını	-10.0114
▁yendi	-10.0129
▁siyaset	-10.013
▁yahudilerin	-10.0131
▁60	-10.0134
▁kuşatma	-10.0139
▁kariyeri	-10.0155
una	-10.0155
▁18.	-10.016
▁tanım	-10.0161
▁oluşturmak	-10.0166
"),	-10.0174
▁erdi	-10.0175
▁mac	-10.0177
▁tıp	-10.0183
▁yenilgi	-10.0187
▁don	-10.019
yo	-10.0197
▁tamamladı	-10.0198
▁tarihinin	-10.0209
▁gerçekten	-10.0215
▁sha	-10.0217
▁karşıtı	-10.0219
▁gelindiğinde	-10.0225
▁değişiklikler	-10.0225
▁gerçekleşti	-10.0228
▁geçerek	-10.0229
ny	-10.0236
ers	-10.0237
▁ediyordu	-10.0243
▁günümüze	-10.0246
▁harekete	-10.0247
▁dik	-10.0248
▁korku	-10.025
▁kısım	-10.0255
▁harekât	-10.0258
lenir	-10.0259
▁yılındaki	-10.026
tes	-10.0261
▁manchester	-10.0264
▁askerleri	-10.0265
▁rolü	-10.0275
lim	-10.0275
▁sonu	-10.0282
gon	-10.0291
▁ülkeler	-10.0294
▁patlama	-10.03
▁yoktu	-10.0302
▁bomba	-10.0303
laşma	-10.0305
ladı	-10.0306
kara	-10.0307
▁biyolojik	-10.0319
▁2019	-10.0324
▁tren	-10.0331
▁adım	-10.0333
▁birer	-10.0336
gar	-10.0343
▁denge	-10.0344
▁oranda	-10.0344
▁toplamda	-10.0348
net	-10.0348
▁harekâtı	-10.0349
köy	-10.0357
▁300	-10.0361
▁türleri	-10.0364
▁valisi	-10.0367
▁numaraya	-10.0368
cü	-10.0368
▁sahipliği	-10.0375
▁iptal	-10.0377
▁ederler	-10.038
▁arjantin	-10.0386
▁komitesi	-10.0387
▁ilişkisi	-10.0392
▁&&	-10.0394
▁istifa	-10.0395
▁car	-10.0397
▁ittifak	-10.0397
▁maça	-10.0398
▁çeşit	-10.0399
▁siyasal	-10.0402
▁hesap	-10.0402
▁birinin	-10.0413
▁ortodoks	-10.0418
▁girişimi	-10.0418
▁olanak	-10.0419
▁derneği	-10.0422
▁play	-10.0423
▁gaga	-10.0423
▁kılıç	-10.0436
▁ölü	-10.0438
▁kırım	-10.044
▁google	-10.044
▁varlığını	-10.045
▁deri	-10.0471
▁ilçe	-10.0474
▁boyu	-10.0475
▁show	-10.0481
siyle	-10.0485
17	-10.049
▁risk	-10.049
▁başlangıç	-10.0491
▁imha	-10.0492
▁arazi	-10.0495
▁gül	-10.0497
ünün	-10.0499
▁olmakla	-10.0504
▁istediği	-10.0509
▁fikri	-10.0521
▁gösterdiği	-10.0522
▁1960'	-10.0525
yordu	-10.0542
▁kalıcı	-10.0542
op	-10.0542
▁okyanus	-10.0551
lamıştır	-10.0551
▁kitabında	-10.056
sından	-10.0564
kon	-10.0571
▁mü	-10.0571
▁yöntemi	-10.0574
▁kazanmıştır	-10.0576
▁kanat	-10.0579
mışlardır	-10.0581
▁özgü	-10.0585
▁gezegen	-10.0588
▁kim	-10.0592
▁dayanan	-10.0595
skender	-10.0595
▁yerlerde	-10.0596
▁kelime	-10.0598
▁üstün	-10.0601
▁konuda	-10.0604
▁performansı	-10.0604
▁algı	-10.0611
▁dergisi	-10.0611
▁mehmed	-10.0612
raw	-10.0615
rit	-10.0623
▁geçerli	-10.0623
▁hepsi	-10.0625
▁süreli	-10.0625
▁ister	-10.0626
▁komutasındaki	-10.0627
▁yardımcısı	-10.0633
▁kere	-10.0635
▁bal	-10.0635
▁yarımadası	-10.0639
har	-10.064
rus	-10.0643
▁karşılığında	-10.0644
▁sam	-10.0646
▁şehirde	-10.0648
▁kimi	-10.065
12	-10.0651
▁kavramı	-10.0652
▁yaşadı	-10.0656
▁yakınlarında	-10.0669
▁komutanlığı	-10.0678
▁bölümde	-10.068
▁latin	-10.0682
▁bulunmaktaydı	-10.0684
lak	-10.0688
▁adamları	-10.0689
▁timur	-10.0691
▁toplama	-10.0691
▁bulgar	-10.0692
▁sıradan	-10.0694
▁temas	-10.0697
▁elektronik	-10.0707
▁cena	-10.0713
▁araba	-10.0716
▁değerli	-10.0718
▁kon	-10.072
▁edward	-10.0724
iş	-10.0729
masını	-10.0731
▁sorunları	-10.0732
▁mm	-10.0733
▁amaç	-10.0734
▁muharebe	-10.0751
▁suyu	-10.0753
▁çocuklar	-10.0757
▁versiyonu	-10.0762
▁milletvekili	-10.0764
▁sistemin	-10.0765
▁gümüş	-10.0766
▁hidrojen	-10.0767
lenmiştir	-10.0768
uk	-10.0769
▁çevresinde	-10.0769
▁pozitif	-10.077
▁kenti	-10.0774
▁çocukları	-10.0775
▁işlemi	-10.0782
▁mc	-10.0782
▁üste	-10.0783
▁olduklarını	-10.0784
▁ağaç	-10.0794
▁kafa	-10.0796
▁ailesinin	-10.0798
▁karısı	-10.0799
▁kaydı	-10.0806
▁olayları	-10.0807
▁yamaç	-10.0815
▁hayal	-10.0817
▁gerektiği	-10.0818
▁louis	-10.0819
▁liste	-10.0823
▁verilir	-10.0836
▁enerjisi	-10.0838
▁sıkı	-10.0841
▁kurulmuş	-10.0844
▁bankası	-10.0849
konstantinopolis	-10.0857
▁türlü	-10.0863
▁yağmur	-10.0868
▁tipi	-10.0874
▁koyu	-10.0876
▁ilişkili	-10.0878
▁kuvvetler	-10.0892
▁vb	-10.0897
5'	-10.0908
▁grupları	-10.0911
lanarak	-10.0913
şçi	-10.0914
▁2016'	-10.0915
▁uydu	-10.0917
sin	-10.0921
▁tasarımı	-10.0923
▁mars	-10.0924
▁sırp	-10.0933
▁kilometre	-10.0945
mann	-10.0945
▁kosova	-10.0951
▁yunanca	-10.0965
tek	-10.0967
▁oyunun	-10.0969
▁gerçekleştiril	-10.097
▁osman	-10.0971
▁askerler	-10.0972
▁disk	-10.0977
▁evren	-10.0977
69	-10.0986
▁kemerini	-10.0991
99	-10.0991
▁saldırıya	-10.0997
▁gemisi	-10.1004
büyük	-10.1008
muş	-10.1009
▁fi	-10.101
▁duyu	-10.101
▁işe	-10.1013
▁atan	-10.1013
▁savaşları	-10.1014
▁ordunun	-10.1016
ray	-10.1019
▁doğan	-10.1024
▁enstitüsü	-10.1025
▁nüfusunun	-10.1034
▁polat	-10.1036
▁politikası	-10.1038
▁açıldı	-10.1046
▁edecek	-10.1058
▁selim	-10.1059
▁gönderildi	-10.1059
▁antlaşma	-10.1069
▁konum	-10.107
▁bay	-10.1071
▁ülkelerde	-10.1074
▁dijital	-10.1077
kal	-10.108
▁terim	-10.108
▁frank	-10.1081
▁gazete	-10.1083
▁pkk	-10.1088
▁denilen	-10.109
▁çatışma	-10.1097
▁optik	-10.1098
▁ilerleyen	-10.1099
▁kuruluş	-10.1115
ll	-10.1117
▁ilham	-10.1121
▁hükümeti	-10.1129
▁par	-10.113
▁karşılaştı	-10.1135
▁dönme	-10.1137
▁kalır	-10.1137
▁yapılar	-10.1137
oz	-10.114
▁2020	-10.114
▁görünür	-10.1141
▁dağları	-10.1141
ktaydı	-10.1144
▁los	-10.1145
▁am	-10.1145
▁dakikada	-10.1145
▁vererek	-10.1148
▁ortasında	-10.1151
bit	-10.1151
▁dev	-10.1153
▁tarafında	-10.1154
bur	-10.1158
▁eserler	-10.1158
▁bireysel	-10.1164
▁zamana	-10.1168
▁numaralı	-10.1172
ım	-10.1174
tor	-10.1174
98	-10.1175
▁operasyon	-10.1178
▁yolcu	-10.118
▁savaşta	-10.1183
ms	-10.1185
▁per	-10.1188
▁yatırım	-10.1192
▁zemin	-10.1194
▁hüseyin	-10.1194
▁bölgeleri	-10.1203
▁kuvveti	-10.1204
▁şüphe	-10.1207
türk	-10.1209
▁şeyi	-10.1212
▁apple	-10.1215
▁dönen	-10.1217
lay	-10.1217
▁aydın	-10.1219
▁komşu	-10.122
ban	-10.1222
tt	-10.1227
▁bölgelerinde	-10.1233
▁başladığı	-10.1234
▁yıldırım	-10.1234
▁sağlam	-10.1237
▁nesil	-10.1251
mü	-10.1255
▁ordusunu	-10.1266
▁‬	-10.1266
rt	-10.1267
▁birim	-10.1267
ant	-10.1275
maz	-10.1275
▁gölü	-10.1277
▁erkekler	-10.1279
▁2017'	-10.128
▁kapsamlı	-10.1282
▁makale	-10.1286
▁toplu	-10.1291
▁hâlâ	-10.1292
▁canlandırılmış	-10.1292
▁my	-10.1293
▁düzey	-10.1295
▁yetersiz	-10.1301
ktedir	-10.1303
tro	-10.1304
▁kanunu	-10.1304
500	-10.1313
▁portekiz	-10.1313
▁belirtmiştir	-10.1314
▁başlamış	-10.1317
▁çıkmış	-10.1318
▁kıyasla	-10.1323
▁idari	-10.1323
▁rum	-10.1334
▁90	-10.1339
▁zırhlı	-10.1341
▁girişim	-10.1342
lerdeki	-10.1345
ph	-10.1348
▁yazılan	-10.1349
▁kaldığı	-10.1349
▁oda	-10.1355
▁gelişmeler	-10.1356
▁ağırlık	-10.1361
▁del	-10.1365
▁panzer	-10.1367
▁balık	-10.1368
▁tanı	-10.1372
iyor	-10.1375
▁başkanlık	-10.1375
▁washington	-10.1377
sar	-10.1381
▁olacağı	-10.1382
▁kemer	-10.1383
las	-10.1391
kin	-10.1398
sch	-10.1401
▁büyükşehir	-10.1405
▁düzen	-10.1418
▁2020'	-10.1419
▁boy	-10.1422
▁yönetmen	-10.1424
▁kurumu	-10.143
▁(2	-10.1434
▁dizisi	-10.1436
ius	-10.144
▁yalnız	-10.1446
▁serisi	-10.1451
▁düşünülmektedir	-10.1455
▁sarayı	-10.1457
▁düşen	-10.1457
▁paralel	-10.1459
▁sırasıyla	-10.146
nan	-10.146
zer	-10.1463
▁sonuçları	-10.1465
▁eşcinsel	-10.147
▁sicilya	-10.1472
▁kültürü	-10.1473
▁renkli	-10.1474
▁nispeten	-10.1477
▁özellikler	-10.1483
▁topluluğu	-10.1485
96	-10.1485
▁ondan	-10.1486
▁olsun	-10.1488
▁mark	-10.1488
▁fifa	-10.149
con	-10.1494
▁dönemlerde	-10.1498
▁çeyrek	-10.1499
+	-10.15
▁oluşturmaktadır	-10.15
mp	-10.1505
▁ham	-10.1507
▁ödeme	-10.1511
▁kanal	-10.1515
rat	-10.152
şe	-10.1521
▁evlilik	-10.1524
▁temiz	-10.1528
lenmesi	-10.1529
vin	-10.153
▁bulunması	-10.153
▁çelebi	-10.1532
▁ağa	-10.1533
▁evrenin	-10.1536
▁terimi	-10.1542
▁çıkarma	-10.1542
çin	-10.1546
▁kaynaklar	-10.1547
28	-10.1551
fo	-10.1557
▁ebu	-10.1557
▁sağlamıştır	-10.1557
▁bunları	-10.156
bey	-10.1564
unda	-10.1575
▁kaydetti	-10.1576
45	-10.1579
▁kalın	-10.1583
▁arkadaşları	-10.1584
▁sorunlar	-10.1585
▁ihtiyacı	-10.1587
▁samsun	-10.1588
hu	-10.1588
▁hoca	-10.1589
▁kentin	-10.159
▁gördüğü	-10.159
▁küme	-10.1596
▁karl	-10.1597
bn	-10.1598
ledi	-10.1606
▁hücum	-10.1612
▁katkı	-10.1621
▁macaristan	-10.1622
▁sahil	-10.1625
▁eserleri	-10.1626
&&	-10.163
ion	-10.1634
car	-10.1636
▁onlar	-10.1639
ation	-10.1642
▁taşıma	-10.1645
▁matematiksel	-10.1646
▁doktor	-10.165
▁anahtar	-10.1654
▁oldular	-10.1657
▁etkiler	-10.1666
lardaki	-10.1672
▁sinir	-10.1672
▁eleştiri	-10.1676
▁dişi	-10.1677
jo	-10.1679
til	-10.1681
▁katılma	-10.1684
▁ligde	-10.1685
gü	-10.169
▁olmaktadır	-10.1694
we	-10.1694
▁katıldığı	-10.1701
▁ders	-10.1702
▁başkanlığı	-10.1702
ps	-10.1703
▁şeyler	-10.1703
▁uç	-10.1706
▁zorunlu	-10.1708
▁oran	-10.1708
▁8.	-10.1709
▁solo	-10.1711
▁asla	-10.1713
▁taşındı	-10.1717
▁ulaşan	-10.172
▁seyahat	-10.1721
tz	-10.1727
▁besin	-10.1731
az	-10.1733
af	-10.1734
ladığı	-10.1736
▁ekonomisi	-10.1743
▁adaları	-10.1744
▁microsoft	-10.1745
▁yapıldığı	-10.1758
▁eşlik	-10.1758
▁yazılım	-10.176
!"	-10.1761
baş	-10.1761
▁saldırdı	-10.1765
▁hali	-10.1767
▁kafkasya	-10.1783
▁bina	-10.1784
▁net	-10.1791
▁koydu	-10.1792
▁has	-10.1795
▁kalmış	-10.1798
▁çatışmalar	-10.1811
▁yaşamı	-10.1815
▁17.	-10.1822
▁2018'	-10.1828
▁rüzgâr	-10.183
▁sorunu	-10.183
▁rakip	-10.1833
▁olursa	-10.1833
▁gürcü	-10.1833
▁peter	-10.1834
ste	-10.1836
▁hazırlık	-10.1838
▁kurucu	-10.1839
▁kurulması	-10.184
ıcı	-10.1841
▁rakibi	-10.1843
▁partinin	-10.1843
▁altıncı	-10.1845
▁listesi	-10.1848
▁şampiyonluk	-10.1849
▁haçlılar	-10.1856
▁kayıp	-10.1858
="4"	-10.1859
ney	-10.1863
▁grand	-10.1863
14	-10.1864
▁dikkate	-10.1869
kov	-10.1869
ğini	-10.1872
▁koloni	-10.188
cy	-10.1881
▁emin	-10.1881
▁kaba	-10.1888
▁başı	-10.1888
▁oluşmaktadır	-10.1895
▁9.	-10.1896
masına	-10.1897
▁bugünkü	-10.19
▁işleme	-10.1903
▁tanesi	-10.1904
▁taşı	-10.1907
suz	-10.191
▁united	-10.1916
40	-10.1917
▁mezar	-10.1924
▁organize	-10.1928
▁kalkınma	-10.1928
▁dahi	-10.1935
▁lise	-10.1937
▁moğol	-10.1938
lidir	-10.1939
▁önlemek	-10.1943
▁açılan	-10.1945
▁sürdürülebilir	-10.1946
liler	-10.1949
bat	-10.1954
▁golünü	-10.1955
▁sur	-10.1957
▁şarkının	-10.196
▁1996	-10.196
▁emri	-10.1962
bri	-10.1963
bet	-10.1984
▁değişen	-10.1989
▁verimli	-10.199
cilik	-10.199
▁hizmeti	-10.1993
▁erişim	-10.1995
▁alması	-10.1996
▁protesto	-10.2009
lat	-10.2011
▁halkının	-10.2016
▁sak	-10.2017
▁trabzon	-10.2019
▁balkanlar	-10.2023
▁kalp	-10.2023
▁alınması	-10.203
▁tarihleri	-10.2031
▁eleştiriler	-10.2032
▁oyunları	-10.2035
▁festivali	-10.2036
▁soru	-10.2037
▁gösterildi	-10.2038
▁büyü	-10.2039
▁gelişimi	-10.204
▁duvar	-10.204
▁belirtir	-10.2044
▁matematik	-10.2049
▁değiştirme	-10.205
▁öğretim	-10.2054
▁mümkündür	-10.2059
▁ortalarında	-10.2062
▁angel	-10.2071
▁oluşturdu	-10.2077
▁ayrılır	-10.2077
mö	-10.208
▁kömür	-10.2084
lıdır	-10.2086
▁onunla	-10.2087
86	-10.209
▁afganistan	-10.2102
▁sistemler	-10.2104
▁gen	-10.2106
▁topçu	-10.211
92	-10.2112
▁kırsal	-10.2116
▁ms	-10.2117
▁yerinde	-10.2122
▁keşif	-10.2124
▁vücut	-10.2125
▁düzeyde	-10.2127
▁davranış	-10.2129
▁parlak	-10.2133
▁şunları	-10.214
▁hata	-10.2141
ks	-10.2144
▁görme	-10.215
leyen	-10.2155
▁hastalığı	-10.2167
▁tabi	-10.2171
▁alanlarda	-10.2179
▁big	-10.2182
▁uzanan	-10.2187
▁boğazı	-10.2188
▁all	-10.2195
▁birini	-10.2195
▁bak	-10.22
▁150	-10.22
klarını	-10.2205
▁lisans	-10.2206
▁herkes	-10.2206
▁toplumun	-10.2208
▁takviye	-10.2208
▁hariç	-10.2209
▁gelişim	-10.2212
que	-10.2216
sey	-10.2219
ici	-10.222
▁kemeri	-10.2224
▁yapmaktadır	-10.2227
▁tapınak	-10.2227
▁evlendi	-10.2229
?"	-10.223
▁oluşturulan	-10.2233
▁tarihte	-10.2233
▁deneysel	-10.2234
ara	-10.2235
▁iktidar	-10.2245
lığın	-10.225
başı	-10.225
▁çıkma	-10.2257
▁tümen	-10.2258
23	-10.226
▁mekanik	-10.2265
39	-10.2266
▁getiren	-10.2271
sis	-10.2278
▁80	-10.2279
▁kurma	-10.228
▁sahte	-10.2281
ecektir	-10.2288
▁birbirinden	-10.2294
tus	-10.2304
lerindeki	-10.2304
▁özellik	-10.2306
▁suikast	-10.231
▁11.	-10.2316
▁kongresi	-10.2318
▁uygulamaları	-10.2319
▁oyuncular	-10.2321
smail	-10.2322
▁çaba	-10.2324
57	-10.2327
larındaki	-10.2329
▁kardeş	-10.2331
▁2019'	-10.2331
▁gereği	-10.2339
▁yarısında	-10.2339
▁stratejik	-10.2342
kta	-10.2343
ft	-10.235
▁satan	-10.2357
▁yönde	-10.2358
▁hâline	-10.2359
▁ters	-10.2363
▁olayların	-10.2368
▁bunlara	-10.2369
▁16.	-10.237
daha	-10.2372
ınca	-10.2373
▁mükemmel	-10.2381
▁turizm	-10.2386
mparatoru	-10.2388
▁ismini	-10.239
▁inceleme	-10.2392
▁resmen	-10.2392
▁uygulaması	-10.2392
▁avcı	-10.2396
▁kökeni	-10.2396
▁euro	-10.2396
▁muhalefet	-10.2398
29	-10.2401
▁türkmen	-10.2401
▁ettikleri	-10.2402
▁nadir	-10.2404
▁güvenli	-10.2404
mparatorluk	-10.2404
▁kuzeyinde	-10.2407
▁cha	-10.2408
luğu	-10.2411
▁uzman	-10.2411
▁1950'	-10.2414
▁şekli	-10.2415
▁kazandığı	-10.2418
ktadır	-10.2421
▁tıbbi	-10.2424
▁salonu	-10.2429
▁aş	-10.243
▁istila	-10.2431
▁halife	-10.2435
▁kart	-10.2435
▁boya	-10.2438
▁uygulanan	-10.2438
▁geriye	-10.2439
ds	-10.244
▁kriz	-10.244
▁futbolcu	-10.244
▁yangın	-10.2441
ju	-10.2443
▁devrimci	-10.2446
▁nehir	-10.2451
▁kurtuluş	-10.2452
▁teorik	-10.2457
▁kullanmak	-10.2458
16	-10.2458
▁bulunuyordu	-10.2461
▁federasyonu	-10.2466
berg	-10.2467
sti	-10.247
▁sabah	-10.2477
▁üstünde	-10.2478
71	-10.2489
▁ölen	-10.2491
▁sonuçlandı	-10.2491
▁olmaması	-10.2503
▁intihar	-10.2509
▁tavsiye	-10.2512
▁35	-10.2517
▁şirketin	-10.252
▁angeles	-10.2524
▁komuta	-10.2528
▁tom	-10.2528
▁yayımladı	-10.2532
▁görüldü	-10.2533
3'	-10.2534
ebilecek	-10.2535
▁lord	-10.2535
00	-10.2536
▁ekip	-10.2539
▁konuşan	-10.2542
▁birden	-10.2543
▁endişe	-10.2546
yeni	-10.2555
▁love	-10.2557
▁oranında	-10.2568
▁alay	-10.2568
▁ger	-10.2568
▁mesafe	-10.2568
▁birlikler	-10.2573
▁evinde	-10.2574
▁yumurta	-10.2576
▁araçlar	-10.2579
amaz	-10.258
▁orduları	-10.2588
▁getirir	-10.259
▁teklifi	-10.2592
▁açı	-10.26
▁kır	-10.2601
▁parçacık	-10.2607
▁söylemiştir	-10.2609
87	-10.2614
97	-10.2615
▁sağlığı	-10.2615
24	-10.2617
▁türkler	-10.2617
▁bağlantılı	-10.262
▁kullanıcı	-10.2623
[	-10.2623
▁ışığın	-10.2625
▁sap	-10.2626
cha	-10.263
tif	-10.263
▁suçlu	-10.2643
▁kapısı	-10.2649
▁2005'	-10.265
abilecek	-10.2652
▁doku	-10.2656
▁sözü	-10.2668
-3	-10.2679
▁hep	-10.2685
▁gelmesi	-10.2689
▁yazılmış	-10.2689
▁boz	-10.2695
▁kaybı	-10.2695
kle	-10.2698
▁olabileceğini	-10.2701
pp	-10.2703
▁bulgaristan	-10.2707
▁merkezli	-10.2708
▁tri	-10.2708
▁1991	-10.271
▁kasaba	-10.2715
▁gitar	-10.2716
mez	-10.2719
▁merkezinde	-10.2721
▁toplanan	-10.2721
▁görevini	-10.2723
▁kaliforniya	-10.2723
▁yardımıyla	-10.2725
▁süreçte	-10.2732
▁protein	-10.2733
▁kum	-10.2734
78	-10.2738
taş	-10.2739
▁değişken	-10.274
om	-10.2742
▁ahmed	-10.2745
▁reklam	-10.2745
▁elektrikli	-10.275
▁ziyade	-10.2752
▁mikro	-10.2755
▁senaryo	-10.2761
▁gemileri	-10.2765
lâ	-10.2769
▁seçme	-10.277
▁aşk	-10.2775
▁sayılı	-10.2775
▁düzenleme	-10.2776
▁etmişti	-10.2784
▁tatlı	-10.2785
▁ortam	-10.2792
dia	-10.2792
▁kartaca	-10.2792
27	-10.2793
▁öyle	-10.2796
▁1992	-10.2797
▁reform	-10.2811
▁fırsat	-10.2821
▁uğradı	-10.2822
▁topu	-10.2824
▁aylarında	-10.2828
lon	-10.2832
▁edici	-10.2832
▁alanlar	-10.2833
▁turda	-10.2836
▁belki	-10.284
▁şair	-10.2842
▁miktarı	-10.2843
▁yaşındaki	-10.2848
22	-10.2848
ap	-10.2848
▁45	-10.2849
▁yapay	-10.2849
▁önemlidir	-10.2852
▁32	-10.2856
▁piyasa	-10.2857
tin	-10.2858
▁einstein	-10.286
▁•	-10.2863
▁not	-10.2865
▁döner	-10.2866
dol	-10.2867
▁eserinde	-10.2869
branice	-10.287
▁sonraları	-10.2871
);	-10.2871
▁konuş	-10.2872
13	-10.2874
▁stadyumu	-10.2878
▁filo	-10.2881
▁bakan	-10.2881
21	-10.2881
▁alıp	-10.2886
yer	-10.2887
skoçya	-10.2909
▁güncel	-10.291
▁araştırmacılar	-10.291
▁romalılar	-10.291
mekte	-10.2912
bin	-10.2918
▁yön	-10.2922
▁evrensel	-10.2924
▁tarihçiler	-10.2924
▁kurt	-10.2924
8'	-10.2925
▁vokal	-10.2927
▁kısmında	-10.2929
▁hisse	-10.2931
▁yedinci	-10.2934
▁smith	-10.2935
9'	-10.2943
▁problem	-10.2943
▁black	-10.2948
▁isteği	-10.2949
▁kıta	-10.2949
eski	-10.2952
▁açıklandı	-10.2955
▁uyar	-10.2961
▁1998	-10.2961
▁alın	-10.2964
tri	-10.2968
▁nato	-10.2969
ıyla	-10.298
▁anlam	-10.2982
▁böylelikle	-10.2985
▁çıkması	-10.2985
tör	-10.2986
▁kor	-10.2986
star	-10.2988
▁hizmetleri	-10.2989
▁yazarlar	-10.299
▁1994	-10.2995
▁topraklarına	-10.2995
▁ödülünü	-10.2997
▁jon	-10.2998
sto	-10.2999
süz	-10.3
ab	-10.3
▁bol	-10.3004
▁musa	-10.301
▁1995	-10.302
▁yağış	-10.303
tepe	-10.3032
▁şeyh	-10.304
▁ürünler	-10.3047
▁çekim	-10.3047
▁şarkılar	-10.3049
75	-10.3049
▁çukur	-10.3049
▁ölçü	-10.3051
▁çocukların	-10.3053
▁denk	-10.3053
▁basınç	-10.3058
▁ju	-10.3058
▁gir	-10.3061
▁ideal	-10.3063
sak	-10.307
est	-10.3071
▁eksikliği	-10.3072
▁yörünge	-10.3074
▁kalabalık	-10.3075
▁milliyetçi	-10.3075
▁işgali	-10.3078
▁çalıştığı	-10.3079
▁geldiğinde	-10.3082
▁olduğunda	-10.3088
▁güneydoğu	-10.3089
▁girer	-10.3096
▁geçirdiği	-10.31
▁gerçekleştirdi	-10.3101
▁lenin	-10.3102
▁har	-10.3103
▁sonlarına	-10.3105
▁anlamı	-10.3112
▁soy	-10.3113
▁bölümünü	-10.3118
od	-10.3118
▁sorgu	-10.3118
▁direniş	-10.3125
▁finlandiya	-10.3126
▁noktada	-10.3129
▁limanı	-10.3135
müş	-10.3138
▁balkan	-10.3138
▁makedonya	-10.3142
row	-10.3145
▁gu	-10.3156
▁deney	-10.3161
▁ağı	-10.3165
▁tarz	-10.3166
▁miktar	-10.3166
▁kolordu	-10.317
▁hamilton	-10.3171
32	-10.3173
mur	-10.3181
▁ülkelerin	-10.3188
kla	-10.3189
▁üzüm	-10.3192
▁faaliyetleri	-10.3192
▁sscb	-10.3192
▁mezun	-10.3195
▁akşam	-10.3198
▁romalı	-10.3204
▁sıfır	-10.3205
billboard	-10.3207
▁suyun	-10.3209
▁kimse	-10.3213
oc	-10.3218
▁(1	-10.3219
4'	-10.3221
▁pay	-10.3222
ril	-10.3224
▁cami	-10.3225
▁plak	-10.3231
mik	-10.3232
mesine	-10.3236
şan	-10.3239
37	-10.324
▁1990	-10.3249
▁bi	-10.3249
ang	-10.3255
▁buffy	-10.3257
▁örneği	-10.3259
▁hayvanlar	-10.326
▁boyun	-10.3269
▁sesi	-10.3271
▁cor	-10.3273
46	-10.328
▁1993	-10.328
▁soruşturma	-10.3284
▁set	-10.3287
▁okuma	-10.3292
▁yapması	-10.3292
▁özgürlük	-10.3295
▁biçimi	-10.3297
▁romanya	-10.3298
▁uyum	-10.3299
▁eylem	-10.3301
▁newton	-10.3305
▁demokrasi	-10.3306
▁yarım	-10.3308
▁bağış	-10.3309
35	-10.3312
cılar	-10.3318
▁örnekleri	-10.332
▁karşılıklı	-10.3321
38	-10.3322
▁evrim	-10.3322
▁binası	-10.3324
▁saldırıları	-10.3332
▁jean	-10.3335
▁hall	-10.3336
▁ayırt	-10.3337
▁klip	-10.3342
▁değişikliği	-10.3345
▁krizi	-10.3349
▁uzunluğu	-10.335
▁beden	-10.3351
▁sundu	-10.3351
▁bilimi	-10.3355
acaktır	-10.3355
ası	-10.3356
leyici	-10.3357
che	-10.3359
▁ac	-10.3361
ud	-10.3361
▁parçaları	-10.3362
▁maddi	-10.3366
▁endüstri	-10.3369
▁önemi	-10.3375
▁martin	-10.3377
▁güneyinde	-10.3379
▁ga	-10.3379
dil	-10.3384
▁seçilen	-10.3392
▁gazze	-10.3393
▁kare	-10.3395
▁akış	-10.3399
▁ikiye	-10.3399
▁kimya	-10.3401
▁sözleri	-10.341
▁kraliçe	-10.3414
81	-10.3416
▁savundu	-10.3419
▁kanıtlar	-10.3421
tha	-10.3422
▁komite	-10.3423
dik	-10.3426
84	-10.3426
▁kurum	-10.3432
▁tamamı	-10.3439
▁filminde	-10.344
▁madrid	-10.3443
▁12.	-10.3446
6'	-10.3446
▁coğrafi	-10.345
by	-10.3454
▁sokak	-10.3457
makta	-10.3462
▁kanalı	-10.3465
▁gerilim	-10.3467
lanabilir	-10.3468
▁girmiştir	-10.3475
▁konuk	-10.3479
▁işletme	-10.3481
sta	-10.3488
▁vermektedir	-10.349
▁geride	-10.3492
▁mor	-10.3495
▁lee	-10.3498
▁yayım	-10.3499
7'	-10.3502
oloji	-10.3503
36	-10.3509
▁çoğunu	-10.3514
▁you	-10.3514
▁alınmıştır	-10.3516
▁ücret	-10.3516
▁birbirlerine	-10.3516
26	-10.3517
▁padişah	-10.352
▁uygulamalar	-10.352
▁bakır	-10.3526
▁saniye	-10.3531
34	-10.3534
▁yöntemleri	-10.354
▁görür	-10.354
▁inşaat	-10.3541
▁ülkedeki	-10.3547
mal	-10.3547
▁1997	-10.3558
▁vurgu	-10.3561
if	-10.3562
▁şarkıları	-10.3564
▁başlayarak	-10.3567
▁sırbistan	-10.3567
▁fatih	-10.3571
▁makine	-10.3573
▁ss	-10.3573
▁kütlesi	-10.3574
89	-10.3575
▁olayın	-10.3576
▁sömürge	-10.3579
▁efendi	-10.3579
▁açar	-10.3581
▁filosu	-10.3582
▁15.	-10.3583
▁zorla	-10.3584
68	-10.3585
medi	-10.3586
▁analizi	-10.359
▁gel	-10.3591
lüğü	-10.3591
lis	-10.3592
▁bor	-10.3595
▁yüzyıldan	-10.3604
▁oynayan	-10.3605
▁kaynaklanan	-10.3608
▁komisyonu	-10.3611
▁bölgeler	-10.3615
▁vermesi	-10.3618
▁görülmüştür	-10.3619
▁kritik	-10.3619
▁sayede	-10.3633
▁his	-10.3634
▁birçoğu	-10.3643
▁sermaye	-10.3645
▁okyanusu	-10.3645
▁yaşama	-10.3648
▁kurduğu	-10.3648
▁gazetesi	-10.3649
▁enflasyon	-10.3649
▁kurmak	-10.3651
▁atandı	-10.3651
49	-10.3653
▁köprü	-10.3653
▁güreş	-10.3653
aj	-10.3654
▁geldiğini	-10.3655
▁açılış	-10.3658
▁macar	-10.3661
▁fon	-10.3663
▁vermiş	-10.3664
ä	-10.3665
▁albümde	-10.3673
▁buzul	-10.3677
▁chp	-10.3678
▁yolları	-10.3692
▁doları	-10.3696
▁aldılar	-10.3698
▁babil	-10.3698
gel	-10.3703
▁bildiri	-10.3705
91	-10.3706
▁etmişlerdir	-10.3708
▁yüzyıla	-10.3714
▁antakya	-10.3715
▁doğrultusunda	-10.3715
▁oksijen	-10.3715
▁gogh	-10.3716
▁olmaları	-10.3716
kat	-10.3719
▁usta	-10.372
▁dünyadaki	-10.3722
▁marka	-10.3723
▁çatı	-10.3726
ling	-10.3727
▁başlangıcı	-10.3729
01	-10.3729
▁ash	-10.373
▁2004'	-10.3732
▁üstüne	-10.3736
▁öğrenciler	-10.3738
▁ulaş	-10.3738
▁yıldızlar	-10.3739
▁akademik	-10.3741
▁yapılacak	-10.3741
▁aylık	-10.3743
▁frekans	-10.3743
▁records	-10.3744
▁2-1	-10.3747
76	-10.3751
tel	-10.3752
▁benim	-10.3761
▁başlamıştı	-10.3767
▁galip	-10.3768
▁onay	-10.3769
▁erdoğan	-10.3771
▁saldırılar	-10.3773
▁müzikal	-10.3775
▁hareketleri	-10.3782
stan	-10.3786
mayı	-10.3791
▁şeker	-10.3795
▁gelişen	-10.38
bay	-10.3801
ılır	-10.3807
▁tour	-10.381
qui	-10.3811
▁danimarka	-10.3815
▁getirmek	-10.3818
ent	-10.3818
▁evi	-10.3823
▁inter	-10.3823
▁ilerleme	-10.3825
▁yeterince	-10.3826
▁kadro	-10.3827
▁1-0	-10.3828
▁ülkeleri	-10.383
line	-10.3833
▁getirdiği	-10.3833
▁doğdu	-10.384
▁zamanı	-10.3841
▁boyutlu	-10.3845
56	-10.3846
▁zırh	-10.3849
▁halep	-10.3852
09	-10.3859
2)	-10.386
ova	-10.3861
▁farklılıklar	-10.3862
top	-10.3862
▁verdiler	-10.3864
▁giydi	-10.3867
▁radikal	-10.3868
▁kurşun	-10.3868
▁bitirdi	-10.3871
▁liberal	-10.3872
▁olmalıdır	-10.3873
▁aşı	-10.3875
▁arapça	-10.3882
▁friedrich	-10.3882
▁fethi	-10.3883
▁dayanarak	-10.3883
▁kredi	-10.3888
▁boyut	-10.3892
▁tar	-10.3895
▁yay	-10.3895
▁gönderilen	-10.3898
83	-10.39
▁turnuva	-10.3902
65	-10.3904
▁hedefi	-10.3906
▁yürürlüğe	-10.391
▁trans	-10.3912
▁çıkarak	-10.3915
▁numara	-10.3928
▁seyirci	-10.3932
▁üçlü	-10.3935
▁kom	-10.3936
▁litvanya	-10.3937
▁çarpışma	-10.3937
▁arasına	-10.3943
▁hot	-10.3944
▁olmasından	-10.3945
▁arkasında	-10.3946
▁temsilcisi	-10.3947
▁gençlik	-10.3951
▁sürüldü	-10.3952
▁+	-10.3952
▁kolu	-10.3954
▁düzenledi	-10.3956
▁sürgün	-10.3957
▁mühendislik	-10.3958
▁yazmıştır	-10.396
▁konferansı	-10.396
mı	-10.3961
▁tehlikeli	-10.3964
▁yarattı	-10.3965
iyet	-10.3966
▁havalimanı	-10.3966
47	-10.397
▁günümüz	-10.397
▁gazeteci	-10.3975
▁gri	-10.3976
▁odası	-10.3976
▁nano	-10.398
▁altyapı	-10.3988
▁sağlama	-10.399
▁toplantı	-10.399
val	-10.3998
▁bombardıman	-10.4002
ama	-10.4004
▁1980	-10.4004
▁ticareti	-10.4004
▁yoğunluğu	-10.4005
hr	-10.4008
cılık	-10.4008
▁birleşme	-10.4009
▁napolyon	-10.4009
▁olabileceği	-10.4009
▁yolculuk	-10.4012
▁sav	-10.4018
▁fransızca	-10.4019
▁kurul	-10.402
shi	-10.402
▁cezası	-10.4022
▁ahşap	-10.4023
▁peygamber	-10.4025
▁anlatır	-10.4027
▁hazar	-10.4028
▁kararlı	-10.4029
nt	-10.4034
▁biz	-10.4035
▁gövde	-10.4035
▁istediğini	-10.4038
▁yönetici	-10.4039
▁finale	-10.4041
▁eyaleti	-10.4042
▁belçika	-10.4043
▁punk	-10.4049
▁dışına	-10.4051
▁otomatik	-10.4052
veya	-10.4054
▁music	-10.4058
▁yusuf	-10.4066
<	-10.4066
▁yarısı	-10.4066
▁fırlatma	-10.4072
▁aziz	-10.4073
▁asıllı	-10.4079
▁bağdat	-10.408
▁gsyi	-10.4081
▁şehre	-10.4082
layıp	-10.4086
▁fayda	-10.4095
▁kitle	-10.4096
▁mahalle	-10.4103
▁ja	-10.4104
▁çelik	-10.4106
ef	-10.4108
▁sığın	-10.4109
▁kanser	-10.4111
▁virginia	-10.4111
eli	-10.4112
▁gönüllü	-10.4112
▁fotoğraf	-10.4115
abilmek	-10.4116
▁pre	-10.4116
▁işlemleri	-10.4116
ral	-10.4119
▁verici	-10.4124
▁joseph	-10.4125
▁kök	-10.4132
▁çeken	-10.4134
▁tutan	-10.4135
▁kazakistan	-10.4138
▁takımına	-10.4138
leyerek	-10.4139
▁ayar	-10.4143
▁geçirmek	-10.4146
▁latince	-10.4149
my	-10.4149
▁bilgileri	-10.4151
▁zamanın	-10.4153
▁depo	-10.4157
▁edebilir	-10.4158
▁taşır	-10.4161
]]'	-10.4163
▁ez	-10.417
▁köyü	-10.4171
▁fiyat	-10.4172
▁bulut	-10.4173
▁eleştirmenler	-10.4174
▁tak	-10.4174
▁yiyecek	-10.4177
▁diplomatik	-10.4181
05	-10.4182
▁içeriyordu	-10.4184
▁fosil	-10.4185
ven	-10.4193
▁(%	-10.4194
▁sonsuz	-10.4199
▁önerdi	-10.42
dor	-10.4201
▁kuruluşu	-10.4206
▁görülebilir	-10.421
▁keskin	-10.421
▁yanlısı	-10.4211
▁öğrenme	-10.4214
▁maddeler	-10.4216
▁dilleri	-10.4218
▁değerlendirme	-10.4222
▁verilmesi	-10.4225
=	-10.4227
dünya	-10.423
▁norveç	-10.4231
▁bulmak	-10.4231
▁teşkil	-10.4234
▁hâlen	-10.4235
▁müze	-10.4235
▁lisesi	-10.424
kor	-10.4241
batı	-10.4244
▁adayı	-10.4247
▁ruslar	-10.4248
ilen	-10.425
▁masa	-10.4251
▁beslenme	-10.4251
ğu	-10.4255
nik	-10.4259
▁durumun	-10.426
▁kolayca	-10.4262
▁fırtına	-10.4265
▁pilot	-10.4268
▁kabile	-10.4275
▁çevresel	-10.4276
▁arttı	-10.4278
▁testi	-10.4282
▁mutfak	-10.4282
▁gazi	-10.4283
▁inanç	-10.4285
▁adının	-10.4287
▁fakültesi	-10.4294
▁dinsel	-10.4296
▁günde	-10.4297
▁savaştan	-10.4302
▁yeteneği	-10.4304
▁etkisini	-10.4307
▁championship	-10.4312
▁destekleyen	-10.4314
▁kazanarak	-10.4314
▁pat	-10.4314
▁çekilen	-10.4314
▁ülkeyi	-10.4317
▁bakım	-10.432
▁göstermek	-10.4324
▁ürdün	-10.4326
▁çalışmalarına	-10.4328
▁sürü	-10.4332
▁pu	-10.4341
▁lav	-10.4346
▁ege	-10.4346
▁yazma	-10.4347
▁kulübün	-10.4347
▁anayasası	-10.4348
▁bulur	-10.4354
-20	-10.4359
▁osmanlılar	-10.436
pro	-10.436
▁haberi	-10.4361
▁ayaklanma	-10.437
94	-10.4372
▁meyve	-10.4375
▁antalya	-10.4378
▁boğaz	-10.438
▁pratik	-10.4383
66	-10.4386
▁olmayı	-10.4392
landığı	-10.4393
▁gar	-10.4401
▁gelip	-10.4401
▁çerçeve	-10.4401
▁hükûmetin	-10.4402
▁tanıma	-10.4405
▁maddenin	-10.4405
▁aşama	-10.4408
▁hay	-10.441
▁açıklamada	-10.4411
▁uyuşturucu	-10.4414
▁elektromanyetik	-10.4414
▁kaç	-10.4415
stro	-10.4419
▁prusya	-10.4421
ebilen	-10.4424
lamış	-10.4424
▁birliklerinin	-10.4424
▁maçtan	-10.4428
▁senato	-10.443
04	-10.4431
▁egemenliği	-10.4433
▁iletken	-10.4434
▁ağırlıklı	-10.4435
leştirilmiş	-10.4437
▁araçları	-10.4437
79	-10.4439
▁tuttu	-10.4443
▁isimler	-10.4444
▁dağlık	-10.445
ora	-10.445
▁400	-10.4454
▁opera	-10.4458
▁verilerine	-10.446
▁yürütme	-10.446
▁çıkışı	-10.4463
ard	-10.4463
▁negatif	-10.4464
▁13.	-10.4472
▁hükümdarı	-10.4473
▁dâhil	-10.4474
▁maksimum	-10.4474
▁öncelikle	-10.4476
▁depolama	-10.448
▁seçimlerinde	-10.448
▁kulesi	-10.4481
▁say	-10.4481
▁saldırgan	-10.4488
▁ala	-10.4489
▁duygusal	-10.449
ıldı	-10.4492
tr	-10.4493
▁hapis	-10.4495
▁ayrılan	-10.4498
for	-10.4498
▁raw	-10.4499
leştirilmesi	-10.45
▁sistemine	-10.45
85	-10.45
▁kimlik	-10.4504
▁payı	-10.4504
▁gerekçesiyle	-10.4505
▁yöntemler	-10.4507
▁70	-10.4508
▁tuz	-10.4509
▁açan	-10.4509
▁ayaklanması	-10.4515
▁uçağı	-10.4521
▁devamlı	-10.4522
▁with	-10.4525
▁yenildi	-10.4526
▁kurucusu	-10.4528
▁öncü	-10.4529
▁coğrafya	-10.4529
ford	-10.454
▁ateşi	-10.4544
▁gönderme	-10.4545
▁triple	-10.4548
▁olacaktı	-10.4549
▁değiştirdi	-10.4555
▁birimleri	-10.4556
▁kavga	-10.4558
tion	-10.4559
▁wrestlemania	-10.456
▁seçimi	-10.4561
▁birincil	-10.4563
ski	-10.4563
▁akımı	-10.4569
▁pusu	-10.4573
▁erzurum	-10.4574
▁karşılaşma	-10.4576
▁styles	-10.4579
▁otorite	-10.4584
▁buradan	-10.4586
▁sayfa	-10.4586
▁dayanır	-10.4589
▁kurban	-10.4591
▁otel	-10.4592
▁bölgeyi	-10.46
▁ru	-10.4602
tis	-10.4602
laştırma	-10.4605
▁listesine	-10.461
▁hazırlanan	-10.461
▁kamp	-10.4612
▁getirmiştir	-10.4612
▁olağanüstü	-10.4614
ras	-10.4616
▁içermektedir	-10.4625
▁başbakanı	-10.4626
▁williams	-10.4627
mesini	-10.4629
▁1930'	-10.4632
▁yaparken	-10.4633
leştirme	-10.4634
▁yılların	-10.4634
▁avrupalı	-10.4635
malıdır	-10.4636
▁kalması	-10.4639
▁yarışma	-10.4647
▁çalışmalarını	-10.4647
▁daire	-10.4648
ğa	-10.4649
▁yağma	-10.465
sor	-10.4652
▁diş	-10.4653
▁kütüphane	-10.466
▁vermeye	-10.4664
▁sir	-10.4666
tığı	-10.467
▁nasa	-10.4677
▁referans	-10.4684
stra	-10.4692
▁aslan	-10.4693
bal	-10.4696
▁alana	-10.4698
▁yarışması	-10.4702
isi	-10.4709
▁acil	-10.471
▁şeyin	-10.4711
▁atarak	-10.4712
▁bilgisi	-10.4713
▁kamera	-10.4713
kili	-10.4715
▁real	-10.4718
▁bel	-10.4721
▁taraftan	-10.4723
▁faz	-10.4724
▁küre	-10.4725
mus	-10.4729
ō	-10.473
▁şunlardır	-10.4732
▁seçti	-10.4736
▁güvenliği	-10.4738
dis	-10.4744
▁neticesinde	-10.4747
▁times	-10.4747
yorum	-10.4749
▁doğası	-10.4752
▁olmasıdır	-10.4755
▁akademisi	-10.476
▁otobüs	-10.476
43	-10.4761
48	-10.4762
▁zincir	-10.4765
▁çiçek	-10.4765
▁olmasının	-10.4766
▁farklılık	-10.4767
▁devri	-10.4767
▁kullanmaya	-10.4771
▁azından	-10.4771
▁körfezi	-10.4772
▁servis	-10.4781
▁üyelerinin	-10.4789
▁bağımsızlığını	-10.4789
▁tartışmalar	-10.479
▁kapsayan	-10.4792
sky	-10.4797
▁örnekler	-10.4797
▁malzemeler	-10.4802
▁tekniği	-10.4802
liğine	-10.4804
▁psikolojik	-10.4805
▁albümleri	-10.4805
▁süt	-10.4808
▁ufak	-10.481
hem	-10.4813
▁team	-10.4817
▁sınırı	-10.4817
▁kaplan	-10.4819
▁profesör	-10.482
▁çanakkale	-10.4822
▁1920'	-10.4823
▁topraklarında	-10.4825
syon	-10.483
▁gösterme	-10.4831
▁millet	-10.4832
▁çekilme	-10.4833
▁unvanını	-10.4834
▁yaşındayken	-10.4839
▁yetişkin	-10.4839
▁deneyim	-10.484
▁açmıştır	-10.4841
▁adana	-10.4843
▁konferans	-10.4843
ciler	-10.4848
▁banka	-10.4855
▁jones	-10.4856
▁sistemini	-10.4856
▁taarruzu	-10.4861
▁etkileşim	-10.4863
av	-10.4866
▁olasılığı	-10.4867
▁olmasa	-10.4867
▁savunan	-10.4868
bas	-10.4873
▁beste	-10.4881
▁dışarı	-10.4882
51	-10.4884
gil	-10.4884
▁heyeti	-10.4885
▁anılan	-10.4886
▁geçiren	-10.4888
▁jack	-10.4891
▁kelimesi	-10.4894
▁chris	-10.4898
▁edilerek	-10.4899
▁bayrak	-10.49
▁ateşkes	-10.49
▁batılı	-10.4903
▁maria	-10.4904
▁değin	-10.4906
▁korunması	-10.4907
▁dinî	-10.4908
▁meşru	-10.4912
▁evre	-10.4913
▁artması	-10.4919
▁egemen	-10.4921
▁orton	-10.4923
▁mutlak	-10.4926
▁sonucuna	-10.4928
lanmaktadır	-10.493
73	-10.4936
▁geçmişte	-10.4938
▁tarif	-10.494
▁isimleri	-10.494
▁oluşumu	-10.4944
▁kurtlar	-10.4947
▁diyerek	-10.4947
▁genişleme	-10.4949
slami	-10.4951
▁düzenlendi	-10.496
▁oluşturma	-10.4962
▁izleyen	-10.4962
▁finansal	-10.4963
▁yapılmaktadır	-10.4963
▁ifadesi	-10.4964
▁league	-10.4966
▁poli	-10.4968
▁demokrat	-10.4969
▁varsa	-10.4976
hal	-10.4978
▁royal	-10.4978
▁mer	-10.4979
▁bulma	-10.4982
▁daniel	-10.4984
▁şehrinde	-10.4987
74	-10.4989
▁yıldır	-10.499
▁em	-10.4991
low	-10.4993
▁mühendisliği	-10.4993
▁yedek	-10.4995
▁miras	-10.4999
▁köşe	-10.5006
▁başlaması	-10.5008
▁mihail	-10.5008
▁men	-10.5009
▁bosna	-10.501
72	-10.5013
▁moda	-10.5024
▁düzeni	-10.5025
cc	-10.5025
▁yarattığı	-10.5026
▁tor	-10.5027
▁ihanet	-10.5027
▁çekici	-10.5029
sit	-10.5037
▁tayin	-10.5039
▁kuran	-10.5053
▁saint	-10.5058
▁modelleri	-10.506
nternet	-10.5061
▁organik	-10.5062
jen	-10.5066
▁ekledi	-10.5069
lip	-10.5069
-5	-10.5069
▁tra	-10.5071
▁sigara	-10.5072
▁lo	-10.5074
▁ülkesi	-10.5074
▁seçimleri	-10.5075
▁kg	-10.5075
▁ölçekli	-10.508
▁kişiyi	-10.5089
▁geçmesi	-10.5089
ct	-10.5093
▁rejim	-10.5093
par	-10.5095
▁kişiye	-10.5098
rma	-10.5098
▁hakem	-10.5098
cumhurbaşkanlığı	-10.5101
▁star	-10.5105
▁silahlar	-10.5106
▁içerik	-10.5108
▁konumu	-10.5108
leşmiş	-10.511
▁ölümüne	-10.5111
▁görüşleri	-10.5112
lçe	-10.5114
▁döneme	-10.5115
▁koşulları	-10.5115
▁oranları	-10.5116
kur	-10.5117
zu	-10.5117
▁etkisiyle	-10.5118
­	-10.5119
▁itiraz	-10.5119
▁görüldüğü	-10.5119
▁za	-10.5124
▁tabanlı	-10.5128
▁topluluk	-10.513
ket	-10.5131
sp	-10.5133
▁tanınan	-10.5135
▁tersine	-10.5137
▁yetki	-10.5141
▁yerleşti	-10.5144
dra	-10.5146
▁ülkeye	-10.5147
▁kalıntıları	-10.5147
▁rahat	-10.5148
▁alınır	-10.5149
şı	-10.5153
▁kay	-10.5155
▁uyarı	-10.5161
-16	-10.5161
64	-10.5162
▁endüstrisi	-10.5166
lenebilir	-10.5167
▁merkezleri	-10.517
▁oradan	-10.5172
▁düşer	-10.5172
▁asa	-10.5173
-4	-10.5177
▁sürecinde	-10.5178
07	-10.518
▁kitabın	-10.5181
▁emekli	-10.5182
▁tanınmış	-10.5184
▁buradaki	-10.5184
▁tanımı	-10.5186
▁fer	-10.5186
rken	-10.5186
▁meslek	-10.5187
▁özelliklerini	-10.5191
▁sayısının	-10.5192
▁grubunun	-10.5198
▁öldürür	-10.5198
field	-10.5199
▁ladin	-10.52
▁yaşamış	-10.5202
▁jo	-10.5205
▁çıkardığı	-10.5211
▁bağlantısı	-10.5214
▁geliştirilen	-10.5216
▁sunuldu	-10.5218
▁motoru	-10.5219
▁başa	-10.522
▁etmesini	-10.5221
▁gitme	-10.5223
▁mah	-10.5224
▁organizasyon	-10.5225
▁öğrencisi	-10.5227
▁nur	-10.5227
ilmiş	-10.523
bol	-10.5232
▁abdullah	-10.5232
):	-10.5233
▁yükselen	-10.5235
▁radyasyon	-10.5235
ılmış	-10.5236
one	-10.5243
▁sultanı	-10.5244
▁yerleşik	-10.5248
▁bil	-10.525
▁ilaç	-10.5251
▁satışa	-10.5252
▁hit	-10.5254
▁fin	-10.5254
özellikle	-10.5255
▁ayrıntılı	-10.5262
name	-10.5262
▁döneminin	-10.5266
▁denen	-10.5267
▁anlama	-10.5267
▁arkadaş	-10.5271
▁cinayet	-10.5272
▁etmesine	-10.5272
▁komutasında	-10.5274
ağa	-10.5275
▁liderleri	-10.5276
▁fk	-10.528
▁yönetiminde	-10.5283
▁max	-10.5286
red	-10.529
▁teknolojisi	-10.5293
eb	-10.5295
▁özerk	-10.53
▁albert	-10.5305
kategori	-10.5307
▁kullanıldığı	-10.5309
▁yüzlerce	-10.5311
▁akıllı	-10.5314
mil	-10.5315
way	-10.5316
û	-10.5321
▁davası	-10.5321
▁pal	-10.5323
ep	-10.5331
200	-10.5334
▁konusundaki	-10.5337
-10	-10.5337
new	-10.5342
▁kira	-10.5343
▁seviyesi	-10.5347
▁eğlence	-10.5347
▁ordusuna	-10.5349
▁biçim	-10.5353
▁efsane	-10.5357
io	-10.5357
▁konya	-10.5363
▁bırakıldı	-10.5363
▁rahatsız	-10.5364
▁yasama	-10.5366
▁alice	-10.5366
▁görmek	-10.5368
33	-10.5369
cher	-10.537
▁kaynaklı	-10.537
▁arasındadır	-10.537
▁eve	-10.5371
▁kalite	-10.5373
▁akışı	-10.5373
▁değişimi	-10.5376
kol	-10.5377
▁baskısı	-10.538
▁deneme	-10.5381
▁milli	-10.5381
▁yukarıda	-10.5385
▁ibadet	-10.5392
▁çerçevesinde	-10.5399
yü	-10.5403
maktaydı	-10.5404
muz	-10.5405
dikleri	-10.5409
▁tesisleri	-10.541
▁çıkarılan	-10.541
▁sparta	-10.541
▁turu	-10.5411
▁farkı	-10.5413
▁artışı	-10.5413
▁sadık	-10.5413
mir	-10.5416
▁kitapta	-10.5421
▁%5	-10.5422
lma	-10.5424
▁undertaker	-10.5425
▁mağlubiyet	-10.5425
▁vakfı	-10.5425
ls	-10.5425
▁hayata	-10.5429
▁gecesi	-10.5431
▁mahkûm	-10.5436
▁beni	-10.5437
▁ekran	-10.5438
▁harita	-10.5442
▁finalinde	-10.5446
▁zira	-10.5446
▁wa	-10.5447
▁geminin	-10.5449
▁yaşamaktadır	-10.5449
▁vol	-10.5449
31	-10.5451
sy	-10.5452
çu	-10.5454
▁parkı	-10.5455
ura	-10.5456
▁göreve	-10.5459
▁alkol	-10.5461
sim	-10.5464
58	-10.5465
▁çağrı	-10.5471
▁ayrım	-10.5473
▁kahraman	-10.5473
▁pakistan	-10.5474
▁işler	-10.5475
▁filozof	-10.5477
mb	-10.5479
ış	-10.5479
44	-10.5482
▁korudu	-10.5484
▁kolordusu	-10.5485
▁bm	-10.5488
▁bütçe	-10.5489
▁cengiz	-10.549
▁tanımlanır	-10.549
eddin	-10.549
88	-10.5492
▁kalıp	-10.5492
▁komutan	-10.5492
▁post	-10.5492
▁gitmek	-10.5495
lenerek	-10.5496
▁topraklarını	-10.5497
▁yakınlarındaki	-10.5506
gas	-10.5506
▁yerçekimi	-10.5507
luğa	-10.5507
nd	-10.551
▁1970	-10.551
oid	-10.5512
67	-10.5516
▁rengi	-10.5518
▁karışık	-10.5519
▁topraklar	-10.5519
▁otuz	-10.5525
▁görünen	-10.5526
klerini	-10.5528
zen	-10.5529
▁istihbarat	-10.553
▁tarımsal	-10.5531
▁şili	-10.5533
▁tesis	-10.5533
▁talebi	-10.5538
▁1989	-10.5543
▁bölgesine	-10.5543
sidir	-10.5544
▁türler	-10.5545
tay	-10.5549
▁üreme	-10.5551
41	-10.5561
▁atıfta	-10.5563
▁geçtiği	-10.5566
▁turne	-10.5571
▁bant	-10.5572
▁alanın	-10.5574
▁%3	-10.5576
▁tarihçe	-10.5577
diler	-10.558
▁hassas	-10.5584
▁subay	-10.5585
ışını	-10.5593
▁west	-10.5598
▁hükümdar	-10.5598
▁üçte	-10.5598
▁gözden	-10.5601
▁seviye	-10.5601
ses	-10.5603
▁sürer	-10.5608
▁rolünü	-10.5622
▁alınarak	-10.5625
art	-10.5627
▁kaptan	-10.5628
▁kilit	-10.563
▁kampanya	-10.5636
▁endüstriyel	-10.564
▁kutup	-10.5644
orta	-10.5648
küçük	-10.565
ong	-10.5653
▁dönüşüm	-10.5655
▁bisiklet	-10.5657
▁ren	-10.5662
▁üret	-10.5664
▁aracın	-10.5667
vir	-10.5667
▁33	-10.5673
▁yönetilen	-10.5675
hâ	-10.5678
▁kadının	-10.5678
▁aşamasında	-10.5679
▁bursa	-10.5679
▁kablo	-10.5679
▁terör	-10.5683
▁inan	-10.5687
▁çıkarıldı	-10.5687
▁gezi	-10.5689
08	-10.5692
▁fu	-10.5693
“	-10.5698
wan	-10.5699
▁şa	-10.57
▁ray	-10.5703
▁riski	-10.5703
ağı	-10.5705
▁tanımlama	-10.5709
▁murad	-10.5711
iv	-10.5715
▁gemiler	-10.5716
▁2001'	-10.5716
tre	-10.5717
▁müdürü	-10.572
▁mı	-10.572
▁kontrolünü	-10.572
abileceği	-10.572
▁sıraya	-10.5722
▁tahmini	-10.5723
▁yapacak	-10.5723
▁akciğer	-10.5723
-6	-10.5725
▁uygulamaya	-10.5726
pon	-10.573
▁çerkes	-10.5731
oku	-10.5735
▁desteklemek	-10.5739
▁odak	-10.574
▁golle	-10.574
▁faktörler	-10.5743
▁gerektirir	-10.5744
▁toz	-10.5746
93	-10.5747
▁yapısal	-10.575
▁tanıştı	-10.575
▁yüzyıllar	-10.5757
▁operasyonu	-10.5759
▁öldürülmesi	-10.5766
▁edilmesini	-10.5766
age	-10.5767
▁değerleri	-10.577
▁düşüş	-10.5773
▁gösterilmiştir	-10.5775
▁döviz	-10.5775
▁alıcı	-10.578
▁anlayışı	-10.5781
▁kendisinden	-10.5783
▁sun	-10.5785
▁dönemlerinde	-10.5786
▁bulunma	-10.5787
▁hacı	-10.5795
▁virüs	-10.5796
▁salih	-10.5797
ble	-10.58
▁idaresi	-10.5803
▁öldürdü	-10.5803
mut	-10.5804
ó	-10.5804
▁kuşatması	-10.5805
burg	-10.5805
▁saç	-10.5806
▁demiştir	-10.5807
los	-10.5807
▁diğeri	-10.5808
müştür	-10.5808
▁plazma	-10.5809
▁donanım	-10.581
▁ressam	-10.5813
▁yarışı	-10.5813
kim	-10.5817
▁kullanılmaya	-10.5817
▁dayan	-10.5823
▁varlık	-10.5825
▁izledi	-10.5825
▁keşfi	-10.5825
▁ok	-10.5826
▁sayılabilir	-10.5826
▁değişir	-10.5827
▁tanımladı	-10.5831
▁kesinlikle	-10.5833
▁tatar	-10.5834
▁olurken	-10.584
▁dvd	-10.5842
▁dükü	-10.5843
▁topraklarının	-10.5846
pop	-10.5847
hir	-10.5854
▁alacak	-10.5854
▁insanı	-10.5859
▁tanımlar	-10.5862
▁nesne	-10.5862
▁direktör	-10.5868
42	-10.5869
▁özgün	-10.5871
▁görüşme	-10.5872
▁kazı	-10.5873
▁kimliği	-10.5876
▁getirilen	-10.588
▁biriydi	-10.5881
▁beklenen	-10.5881
▁modeller	-10.5884
▁kanadı	-10.5885
ebileceği	-10.5887
▁kampanyası	-10.5889
mam	-10.5893
▁şarj	-10.5893
▁göçmen	-10.5896
▁kariyerinin	-10.5896
▁sandalye	-10.5897
▁mesaj	-10.5897
▁stili	-10.5899
03	-10.5903
▁dalında	-10.5904
▁reaksiyon	-10.5908
▁dosya	-10.5909
▁uyumlu	-10.5911
▁gelenek	-10.5912
82	-10.5912
▁sattı	-10.5919
▁bireyler	-10.592
ğü	-10.5922
▁komplo	-10.5922
dos	-10.5923
wood	-10.5926
öl	-10.5926
▁değiş	-10.5927
▁yüklü	-10.5932
▁%4	-10.5935
şu	-10.5935
▁live	-10.5936
100	-10.5937
▁yıldan	-10.5938
▁tarihindeki	-10.5944
▁sözleşmesi	-10.5947
▁karakterler	-10.595
gal	-10.5954
▁ağrı	-10.5955
▁ani	-10.5955
▁sürdürdü	-10.5957
üs	-10.5959
▁albay	-10.5959
▁aşağıda	-10.5961
▁başvuru	-10.5962
▁mutfağı	-10.5964
▁takıma	-10.5964
▁amiral	-10.5968
abilen	-10.5971
▁2002'	-10.5971
öz	-10.5971
▁yeraltı	-10.5974
▁seferleri	-10.5974
ans	-10.5974
wi	-10.5975
▁liverpool	-10.5977
▁bırakma	-10.5977
α	-10.5979
▁ömer	-10.598
▁bulmuştur	-10.5981
▁dönüşü	-10.5982
▁üssü	-10.5983
of	-10.5985
▁camii	-10.5989
▁far	-10.5989
▁denize	-10.599
▁tedarik	-10.5997
▁yollar	-10.5997
▁şarkıyı	-10.5998
▁cisim	-10.5999
rip	-10.6
▁kaldırıldı	-10.6
mas	-10.6001
gerçekleştirildi	-10.6001
▁kardeşler	-10.6004
ff	-10.6005
▁koalisyon	-10.6011
amadı	-10.6014
▁şehzade	-10.6014
▁bilinmeyen	-10.6014
▁belirtilen	-10.6015
▁bizanslılar	-10.6016
▁çalışmak	-10.6016
mat	-10.602
▁getirme	-10.6022
▁plana	-10.6023
▁işleri	-10.6024
▁düşündü	-10.6027
rin	-10.6029
▁yapılma	-10.6029
▁itunes	-10.6031
▁buhar	-10.6032
rarak	-10.6038
üz	-10.6048
dd	-10.6051
▁2-0	-10.6051
▁geliştirdi	-10.6053
▁pas	-10.6055
▁sonuçta	-10.606
▁dua	-10.6061
kçe	-10.6061
▁geçme	-10.6063
emez	-10.6068
hat	-10.6071
hisar	-10.6072
▁sadrazam	-10.6075
▁1940'	-10.6075
▁töreni	-10.6077
▁öğrencilerin	-10.6078
▁geliştirilmesi	-10.6082
▁salon	-10.6084
▁gelerek	-10.6085
▁psikoloji	-10.6086
▁bart	-10.6087
▁yapmayı	-10.6088
▁işkence	-10.609
▁hâlinde	-10.6096
ano	-10.6098
▁anlayış	-10.61
▁bulun	-10.61
▁kayda	-10.6104
▁topladı	-10.6106
▁dinamik	-10.6107
▁propaganda	-10.6111
▁öğrencileri	-10.6113
klim	-10.6116
▁zihinsel	-10.612
▁orhan	-10.6121
▁gid	-10.6123
▁teknikleri	-10.6129
▁tutar	-10.6133
▁1960	-10.6134
▁sivas	-10.6136
▁ücretsiz	-10.6138
▁başarıyla	-10.6143
gs	-10.6144
▁deprem	-10.6149
gün	-10.615
doğu	-10.6152
▁köpek	-10.6153
▁ışın	-10.6155
▁belediyesi	-10.6156
▁koca	-10.6157
vet	-10.6159
▁bugüne	-10.6164
▁halen	-10.6167
▁albümünü	-10.6172
rum	-10.6172
▁tiyatrosu	-10.6173
▁gerekmektedir	-10.6175
nor	-10.6177
▁yakından	-10.6185
hen	-10.6186
ou	-10.6186
▁sürmüştür	-10.6189
▁arnavutluk	-10.619
▁anı	-10.6191
▁is	-10.6192
▁sanatçılar	-10.6193
▁duyduğu	-10.6195
▁14.	-10.6198
ola	-10.6198
ric	-10.6198
62	-10.62
▁müslümanlar	-10.6202
▁ayrılmış	-10.6203
▁grupların	-10.6206
▁bayezid	-10.6207
š	-10.6207
▁tepkiler	-10.6207
▁umut	-10.6209
▁uygulanması	-10.6213
▁imparatorluğun	-10.6219
▁red	-10.622
▁sitesi	-10.622
▁bulan	-10.6221
‘	-10.6227
▁cemiyeti	-10.6234
▁olmadı	-10.6237
tic	-10.6238
▁bırakarak	-10.6243
▁müşteri	-10.6243
▁unvanı	-10.6244
▁olanlar	-10.625
▁kısmının	-10.6252
dağ	-10.6253
▁gücünün	-10.6254
▁sera	-10.6257
▁yasaları	-10.6259
▁haricinde	-10.626
▁itiraf	-10.626
▁oluşuyordu	-10.6261
▁2003'	-10.6263
▁yetkililer	-10.6266
▁değiştirildi	-10.6267
▁leon	-10.6267
▁biyo	-10.6269
▁sen	-10.627
▁gönderdiği	-10.6271
▁savunması	-10.6271
▁yaratıcı	-10.6274
ville	-10.6276
▁pahalı	-10.6278
▁white	-10.6279
▁tutmak	-10.6279
▁güçler	-10.6279
▁ayrılmıştır	-10.6283
▁iyice	-10.6283
▁alanına	-10.6283
▁sayıları	-10.6288
lt	-10.6289
▁mekan	-10.6291
▁hazine	-10.6292
▁çabaları	-10.6294
▁emre	-10.6298
▁batısında	-10.6305
yüz	-10.6307
▁fonksiyonu	-10.6307
▁ayrılma	-10.6308
▁cihaz	-10.6309
▁yıldızı	-10.6311
▁trabzonspor	-10.6315
▁büyüklüğü	-10.6318
▁one	-10.6319
▁açıklar	-10.6325
▁kaleme	-10.6326
▁teşkilatı	-10.6331
▁aykırı	-10.6331
▁reigns	-10.6331
▁öğretmen	-10.6333
▁koşullar	-10.6335
í	-10.6336
▁slav	-10.6337
▁anna	-10.6338
06	-10.6345
lus	-10.6346
lit	-10.6348
▁tutum	-10.6349
▁brown	-10.6349
▁cal	-10.635
▁gösterilen	-10.6352
▁seks	-10.6354
▁çalışırken	-10.6357
▁ihlal	-10.6358
leşen	-10.6364
▁oğulları	-10.6364
▁fikrini	-10.6366
▁girişimleri	-10.6367
ılması	-10.6368
▁war	-10.6368
anti	-10.6375
▁dikkatini	-10.6377
▁astronomi	-10.6378
▁direkt	-10.638
▁kariyer	-10.638
▁haftasında	-10.6382
▁güneye	-10.6382
lığına	-10.6383
▁hareketin	-10.6384
▁hâkim	-10.6385
▁hafıza	-10.6386
▁iniş	-10.6388
ix	-10.6389
▁(17	-10.6389
▁tabaka	-10.639
▁başlanmıştır	-10.639
▁maçını	-10.6391
▁ulaşmıştır	-10.6392
▁dağılımı	-10.6393
▁güreşçi	-10.6396
▁çoklu	-10.64
-15	-10.6401
▁yüksel	-10.6402
▁adil	-10.6407
▁erkeklerin	-10.6412
▁girme	-10.6412
ebilmek	-10.6414
▁yetkilileri	-10.6415
63	-10.6415
lendiği	-10.6416
ttifak	-10.6421
▁edirne	-10.6422
▁disiplin	-10.6422
▁askerlerin	-10.6425
▁sağladığı	-10.6425
▁etkinlik	-10.6425
▁sayısını	-10.6427
ting	-10.6432
▁maddesi	-10.6433
▁atıldı	-10.6433
▁sürümü	-10.6434
port	-10.6434
▁adres	-10.6434
nus	-10.6436
▁organ	-10.6436
▁edebiyatı	-10.6439
▁herodot	-10.6439
set	-10.6443
▁ortalaması	-10.6445
▁mekaniği	-10.6445
▁ailenin	-10.6445
▁arkeolojik	-10.6446
esi	-10.6456
tos	-10.6456
ebileceğini	-10.6457
tsu	-10.646
▁seçilmiş	-10.6465
▁desteğini	-10.647
▁ol	-10.6471
▁doğusunda	-10.6471
▁birey	-10.6474
oannis	-10.6475
▁1945	-10.6477
▁insanlara	-10.6481
▁soylu	-10.6487
▁giy	-10.649
▁kont	-10.6491
geçersiz	-10.6491
▁belirlemek	-10.6492
▁aç	-10.6492
çok	-10.6493
▁ölmüştür	-10.6495
avrupa	-10.6496
▁yaptığını	-10.6496
meyi	-10.6496
55	-10.6498
▁döngü	-10.6499
▁yugoslavya	-10.65
▁zamanlı	-10.6503
▁baz	-10.6504
not	-10.6506
▁yaşar	-10.6509
mes	-10.651
▁jüri	-10.6512
▁eflak	-10.6512
▁destekledi	-10.6514
pu	-10.6517
katılım	-10.6517
ılma	-10.652
▁annesinin	-10.652
ā	-10.6521
▁buğday	-10.6521
▁açısı	-10.6522
▁king	-10.6523
▁bölgesinin	-10.6526
▁sanatı	-10.6527
au	-10.6533
pen	-10.6535
▁yazında	-10.6536
▁süredir	-10.6537
ngilizler	-10.6537
kam	-10.6539
▁tören	-10.654
▁kütüphanesi	-10.6542
▁yöneticisi	-10.6547
▁yardımı	-10.655
▁istasyonu	-10.655
▁kullanmıştır	-10.6552
▁akademi	-10.6555
ios	-10.656
▁şart	-10.6563
cık	-10.6563
▁mensup	-10.6567
▁birbirleriyle	-10.6569
▁göze	-10.6569
üm	-10.6571
▁yumuşak	-10.6573
▁rick	-10.6573
▁başlıklı	-10.6573
▁allah	-10.6574
▁üreten	-10.6574
yev	-10.6578
ılan	-10.658
▁sevk	-10.6581
▁bizzat	-10.6585
▁kavram	-10.6587
▁topluluklar	-10.6588
▁1982	-10.6589
▁dergi	-10.6591
▁verdikleri	-10.6591
lanıp	-10.6596
▁geliştirmek	-10.6601
▁meşhur	-10.6603
▁augustus	-10.6605
eme	-10.6609
mel	-10.661
▁tablo	-10.6611
▁boru	-10.6611
▁sıcaklığı	-10.6612
iç	-10.6612
well	-10.6613
▁etmekte	-10.6615
▁gruptan	-10.6615
▁jericho	-10.6622
▁arabistan	-10.6622
▁kahire	-10.6622
▁olmaktan	-10.6622
▁elinden	-10.6622
▁arzu	-10.6623
▁tutuklandı	-10.6628
ob	-10.6629
▁şeytan	-10.6631
yar	-10.6633
▁sertifika	-10.6634
▁sar	-10.6634
ero	-10.6638
▁alınmış	-10.6639
▁club	-10.6641
gre	-10.6642
▁heykel	-10.6644
▁yaklaşımı	-10.6645
▁söylediği	-10.6647
dıkları	-10.6653
▁güvenilir	-10.6654
▁organı	-10.6654
▁oyuna	-10.6655
▁bank	-10.6657
▁yaptılar	-10.6657
▁kural	-10.6663
54	-10.6663
▁problemi	-10.6664
▁col	-10.6666
▁1941	-10.6666
likleri	-10.6667
▁120	-10.6671
gun	-10.6675
▁ucuz	-10.6676
▁meydanı	-10.6677
▁elizabeth	-10.6677
▁tahrip	-10.6677
tak	-10.668
▁elendi	-10.669
▁eleme	-10.6692
▁ayna	-10.6693
▁özgürlüğü	-10.6693
▁kazanmış	-10.67
▁şirketler	-10.6702
abilmektedir	-10.6703
▁arda	-10.6711
▁jandarma	-10.6714
▁nefret	-10.6715
sun	-10.6717
▁hükümdarlığı	-10.6718
▁teorileri	-10.6719
bad	-10.6719
▁we	-10.6719
▁tümüyle	-10.672
▁sil	-10.6724
▁yerleri	-10.6725
▁ışığı	-10.6727
▁bünyesinde	-10.6727
▁edilmişti	-10.6731
▁koku	-10.6733
▁tecavüz	-10.6733
▁viyana	-10.6733
▁hayatının	-10.6734
▁veriler	-10.6735
▁ağırlığı	-10.6737
▁müdürlüğü	-10.6738
▁elektro	-10.6738
kaya	-10.6743
▁1984	-10.6746
▁yazan	-10.6746
▁gelişi	-10.6747
▁dönemine	-10.6747
tanrı	-10.6749
▁ligin	-10.676
▁felsefi	-10.676
klarında	-10.676
▁kuzeybatı	-10.6768
▁mareşal	-10.677
▁planları	-10.6771
▁ırk	-10.6771
▁perde	-10.6776
türkiye	-10.6776
ex	-10.6778
▁geçir	-10.6782
▁golü	-10.6784
▁seslendirdi	-10.6786
▁olmaz	-10.6794
▁by	-10.6795
▁gerçekleştir	-10.6795
zar	-10.6799
▁1979	-10.6799
▁hücreleri	-10.68
▁felsefesi	-10.68
▁wi	-10.6802
▁sunucu	-10.6802
▁başar	-10.6803
▁mimar	-10.6808
▁devir	-10.6808
▁pamuk	-10.6808
▁sekizinci	-10.6809
▁sp	-10.681
yacağını	-10.6813
▁va	-10.6813
▁geçmişi	-10.6813
59	-10.6814
tas	-10.6814
▁kuzeyde	-10.6814
cel	-10.6816
▁borç	-10.6823
▁platform	-10.6826
eti	-10.6828
kte	-10.6829
▁hristiyanlık	-10.6829
▁sektörü	-10.683
▁çaplı	-10.6832
▁verileri	-10.6834
▁verilmiş	-10.6838
▁çevresindeki	-10.6842
▁hakimiyeti	-10.6842
▁düşünülen	-10.6846
▁konsey	-10.6847
▁kayıtları	-10.685
▁açıklamıştır	-10.6851
▁ağız	-10.6852
▁yolunu	-10.6852
▁1918	-10.6859
ary	-10.6864
▁kedi	-10.6867
▁girdiği	-10.6867
▁yapımcı	-10.6869
▁yöre	-10.687
nönü	-10.687
▁zaferi	-10.6871
▁azaltmak	-10.6872
▁tahliye	-10.6875
ografi	-10.6876
▁geçirildi	-10.6877
▁sayısal	-10.6877
▁katliam	-10.6878
▁ayakta	-10.688
▁gölge	-10.688
▁ap	-10.6881
▁super	-10.6882
▁iktidarı	-10.6883
▁haftada	-10.6884
▁nihai	-10.6884
▁moleküler	-10.6886
▁kurgu	-10.6888
▁personel	-10.6889
▁mineral	-10.689
▁"(	-10.6893
▁aralığı	-10.6894
▁sektör	-10.6895
▁bebek	-10.6896
▁hoş	-10.6898
ildi	-10.69
▁nar	-10.69
▁lübnan	-10.6902
▁münih	-10.6902
cle	-10.6902
▁görevinden	-10.6905
▁belirten	-10.6907
▁konular	-10.691
▁kuralları	-10.6911
▁plastik	-10.6911
cra	-10.6913
▁bilişsel	-10.6913
lem	-10.6914
▁romanı	-10.6915
▁düzensiz	-10.6918
▁kuramı	-10.6918
▁tanımlamak	-10.6921
▁merkezine	-10.6924
▁küba	-10.6924
▁hastanesi	-10.6925
▁34	-10.6928
▁bul	-10.6928
▁durumuna	-10.6928
▁atış	-10.6929
▁pir	-10.6931
▁parçalar	-10.6931
▁kut	-10.6934
ns	-10.6936
yani	-10.6938
şim	-10.6942
▁haklar	-10.6943
▁kayıpları	-10.6943
zan	-10.6944
▁şarkısını	-10.6945
▁iyon	-10.6949
hil	-10.6949
og	-10.695
▁dilin	-10.6952
▁zirve	-10.6953
▁takdirde	-10.6957
▁denklem	-10.6957
▁seçkin	-10.6958
ht	-10.6959
▁()	-10.6959
▁alaska	-10.696
▁fil	-10.6969
▁kompleks	-10.697
rek	-10.6971
▁gerçeği	-10.6972
▁ordular	-10.6972
▁eğri	-10.6977
▁bağışıklık	-10.6978
▁gerçekte	-10.6979
yol	-10.6982
larıdır	-10.6988
altı	-10.6989
▁durumunu	-10.699
▁evine	-10.6991
▁doğrusal	-10.6994
▁kütahya	-10.6997
▁vaka	-10.6997
▁tahıl	-10.6998
▁karakterdir	-10.7001
▁basıncı	-10.7002
▁anıt	-10.7003
▁görmüş	-10.7006
▁wilhelm	-10.7009
evi	-10.7011
▁ter	-10.7012
▁sınıflandırma	-10.7019
▁600	-10.702
▁murat	-10.7021
▁röportajda	-10.7022
idir	-10.7023
▁bitkiler	-10.7027
▁alanlarında	-10.7028
▁up	-10.7028
▁kralın	-10.7029
▁belirsiz	-10.703
▁hac	-10.7031
▁biçiminde	-10.7031
▁üstü	-10.7032
▁öykü	-10.7041
▁öldüğü	-10.7041
▁okudu	-10.7043
▁laz	-10.7046
▁kaçan	-10.7046
ari	-10.7046
laşmış	-10.7048
▁eriş	-10.705
▁şans	-10.7053
▁rekor	-10.7063
▁şampiyonluğunu	-10.7064
▁yaşandı	-10.7065
▁listelerinde	-10.7067
▁yetkisi	-10.7068
▁tehdidi	-10.7073
abilmesi	-10.7074
▁bağımlı	-10.7075
▁bon	-10.7081
▁yüzü	-10.7091
▁arasından	-10.7094
▁çeviri	-10.7095
▁dayanmaktadır	-10.7095
▁imzalanan	-10.7095
▁fan	-10.7099
ré	-10.71
▁milyondan	-10.71
▁çıkmaya	-10.71
▁hesaplama	-10.7102
▁nadiren	-10.7102
▁zehir	-10.7106
▁rose	-10.7106
▁hücreler	-10.7107
ding	-10.7111
▁yaralı	-10.7112
sol	-10.7114
▁açılması	-10.7115
pla	-10.7117
▁onur	-10.7119
53	-10.713
mişlerdir	-10.7131
▁250	-10.7131
▁stephen	-10.7132
▁karışımı	-10.7133
▁rumeli	-10.7133
▁bana	-10.7133
lıyordu	-10.7134
▁fc	-10.7134
▁hayvanların	-10.7137
▁yayılan	-10.7137
▁yıldızların	-10.7138
▁tapınağı	-10.7139
▁bireylerin	-10.714
▁parçacıklar	-10.7141
▁mahallesi	-10.7141
nov	-10.7142
▁36	-10.7143
▁tanıtım	-10.7144
▁sebeple	-10.7146
▁oto	-10.715
-14	-10.7153
▁scott	-10.7154
▁hacmi	-10.7156
ucu	-10.7156
emedi	-10.7158
yak	-10.7159
▁ford	-10.716
▁haklarını	-10.7161
▁programları	-10.7164
▁kaybeden	-10.7171
▁şeridi	-10.7171
▁taliban	-10.7172
▁hill	-10.7172
▁tez	-10.7174
▁giyen	-10.718
ria	-10.7182
▁bizim	-10.7185
▁1986	-10.7185
fet	-10.7189
▁chi	-10.7193
▁oylama	-10.7194
yet	-10.7195
▁taşın	-10.7195
▁hi	-10.7203
▁üstlendi	-10.7203
▁çocuğun	-10.7204
▁zamanların	-10.721
▁gittikçe	-10.7211
▁yönlü	-10.7212
▁eklendi	-10.7215
▁pil	-10.7216
▁ulu	-10.7219
▁temsilcileri	-10.722
▁ortamda	-10.7222
▁kuşlar	-10.7224
wo	-10.7224
▁güneyde	-10.7225
▁sağlanması	-10.7226
▁emretti	-10.7228
▁görevleri	-10.7231
▁nobel	-10.7232
sing	-10.7234
▁parlamentosu	-10.7235
▁içeriği	-10.7237
▁hareketli	-10.7237
oy	-10.7241
▁gelecekte	-10.7243
nal	-10.7245
kes	-10.7246
▁katılır	-10.7252
▁anlatan	-10.7252
▁günlerde	-10.7255
61	-10.726
▁davranışları	-10.726
▁yaşamın	-10.7264
▁belgesel	-10.7266
▁içki	-10.7267
▁mobil	-10.7268
▁görevine	-10.7268
gue	-10.7272
▁şok	-10.7272
gor	-10.7272
gg	-10.7272
▁örtüsü	-10.7278
▁matt	-10.7279
▁hü	-10.7282
▁poe	-10.7287
▁q	-10.7288
▁maden	-10.729
▁sancak	-10.7291
▁vatandaşı	-10.7293
▁mary	-10.7293
▁albümünün	-10.7295
▁indi	-10.7295
▁ulaşma	-10.7296
▁deli	-10.7296
▁platon	-10.7298
▁ptolemy	-10.7304
▁vergisi	-10.7306
▁rüya	-10.7307
▁%1	-10.7308
▁suudi	-10.7309
▁cihazlar	-10.7311
▁çalışmıştır	-10.7313
▁öneri	-10.7315
▁nötron	-10.7315
ach	-10.7316
ydü	-10.7317
▁güvence	-10.7319
▁koruması	-10.7321
▁planlama	-10.7322
▁ermeniler	-10.7323
▁diyarbakır	-10.7328
zlar	-10.7332
▁düşünür	-10.7337
▁farklıdır	-10.7339
▁1998'	-10.7341
▁sat	-10.7346
rem	-10.7347
▁yuva	-10.7347
nsanlar	-10.7349
▁site	-10.7351
▁kaçtı	-10.7351
▁penaltı	-10.7352
▁çay	-10.7359
▁kırk	-10.736
▁bilme	-10.7361
▁şansı	-10.7365
▁şii	-10.7368
▁araştırmaları	-10.737
▁sonuçlanan	-10.7372
▁villa	-10.7373
▁sıralarda	-10.7375
▁mimarisi	-10.7378
▁araplar	-10.738
▁jüpiter	-10.7388
▁protestan	-10.7388
▁kronik	-10.7389
▁tanımlanan	-10.7389
▁trakya	-10.7389
▁yazılar	-10.7391
▁mevki	-10.7394
ier	-10.7398
▁deneyler	-10.7398
ğında	-10.74
▁bulunabilir	-10.74
▁tüfek	-10.74
▁eksen	-10.7402
fre	-10.7408
▁tbmm	-10.7408
▁sırt	-10.7409
▁oğuz	-10.7409
skenderiye	-10.7409
layıcı	-10.741
▁etkileyen	-10.741
▁cd	-10.741
▁mtv	-10.741
▁hun	-10.7414
▁aldığını	-10.7415
▁göl	-10.7415
▁işletim	-10.7416
▁temelini	-10.7417
▁bölümleri	-10.7421
git	-10.7422
▁azınlık	-10.7422
▁wrestling	-10.7424
▁bilimler	-10.7425
▁yatak	-10.7427
sunu	-10.7427
▁rollins	-10.7428
▁patlak	-10.7428
▁mayın	-10.7431
▁devletlerin	-10.7432
laması	-10.7433
▁1985	-10.7438
▁tedavisi	-10.7444
▁bölgesindeki	-10.7444
▁mezopotamya	-10.7448
▁açığa	-10.7448
▁evlenme	-10.745
ction	-10.7452
▁eskiden	-10.7456
▁ih	-10.7458
▁aşık	-10.7461
ncil	-10.7463
▁kong	-10.7467
▁sinyal	-10.7468
▁tuna	-10.7478
▁göçü	-10.748
▁bakü	-10.7481
▁rey	-10.7483
▁taç	-10.7485
ram	-10.7486
▁komedi	-10.7489
▁zamandan	-10.7489
▁bulunduğunu	-10.7491
▁yazarları	-10.7492
▁moğollar	-10.7494
▁edin	-10.7496
▁filmler	-10.7499
▁tre	-10.75
▁türklerin	-10.7501
▁önceleri	-10.7504
▁diyabet	-10.7506
02	-10.7506
bor	-10.7507
μ	-10.7508
▁uyu	-10.7509
▁1944	-10.7511
▁katılmıştır	-10.7512
▁yahudileri	-10.7512
▁hükümetin	-10.7512
kaide	-10.7514
▁yayılması	-10.7515
▁vuruş	-10.7517
kâr	-10.7518
gh	-10.7519
▁(3	-10.7522
▁kaldılar	-10.7525
▁yemeği	-10.7526
▁stil	-10.7526
▁ölümcül	-10.7528
▁posta	-10.753
lıların	-10.7531
▁düşmanı	-10.7531
▁festival	-10.7533
▁marx	-10.7534
▁ovası	-10.7546
▁1987	-10.7549
bb	-10.7549
▁fakir	-10.7549
▁lehine	-10.7549
▁etmedi	-10.755
wer	-10.7551
▁amaçla	-10.7552
▁dersleri	-10.7553
dere	-10.7556
▁görelilik	-10.756
▁klibi	-10.7562
▁yoksa	-10.7565
▁konularda	-10.7567
▁ofisi	-10.7568
ali	-10.7574
▁1983	-10.7575
▁alırken	-10.7576
▁elçi	-10.7578
▁isteme	-10.7581
▁au	-10.7582
▁beyan	-10.7583
▁kü	-10.7588
oh	-10.7588
▁arena	-10.7589
▁mes	-10.7589
▁1991'	-10.759
▁hormon	-10.759
▁açısal	-10.7592
▁strateji	-10.7593
▁önemini	-10.7599
dr	-10.76
▁aittir	-10.7601
▁yapıları	-10.7601
▁almanca	-10.7607
▁1945'	-10.7609
▁öfke	-10.7609
ilmesi	-10.7611
▁plaka	-10.7611
▁alayı	-10.7611
▁ayrılması	-10.7613
▁tarihe	-10.7614
ves	-10.7617
▁yaralandı	-10.7623
▁kendileri	-10.7625
▁aşkın	-10.7625
▁grammy	-10.763
▁uzunluğunda	-10.763
▁1988	-10.7633
▁planlanan	-10.7633
▁hediye	-10.7638
▁girmesi	-10.764
▁carl	-10.764
▁yılmaz	-10.7641
▁faktör	-10.7641
▁gerekse	-10.7645
sek	-10.7646
▁yönü	-10.7648
town	-10.765
▁zararlı	-10.765
▁tarafı	-10.7651
▁büyüyen	-10.7652
▁koç	-10.7656
▁sözlü	-10.7656
▁sağlayacak	-10.7659
▁kurdular	-10.7665
▁koruyucu	-10.7666
▁mesih	-10.7666
▁felaket	-10.7667
▁refah	-10.7667
cen	-10.7668
▁hel	-10.767
▁tunus	-10.7671
▁hakkını	-10.7677
▁uzlaşma	-10.7678
▁kurtarma	-10.7678
lek	-10.7678
▁garanti	-10.7679
▁sekreteri	-10.768
▁sezonunun	-10.7681
tom	-10.7682
▁eşitlik	-10.7683
xi	-10.7683
vil	-10.7684
▁arthur	-10.7692
▁tasarlanmış	-10.7693
▁sev	-10.7698
rik	-10.77
muştur	-10.77
▁muhalif	-10.7703
▁komisyon	-10.7703
▁edildiğini	-10.7704
▁savaşçı	-10.7704
▁güçlerini	-10.7706
▁söyleyerek	-10.7711
▁sunulan	-10.7713
▁kaldırılması	-10.7713
▁edilmesine	-10.7714
▁yerden	-10.7717
▁arz	-10.7722
▁2021	-10.7722
52	-10.7725
led	-10.7732
gerçek	-10.7737
▁gene	-10.7738
▁sakin	-10.7738
▁hol	-10.7745
▁batman	-10.7748
▁sessiz	-10.7748
▁işlev	-10.775
▁güçlerinin	-10.775
tüm	-10.7751
▁katliamı	-10.7751
▁nitekim	-10.7753
▁katılım	-10.7756
▁kuzeydoğu	-10.7756
▁duvarı	-10.7756
▁atık	-10.7758
istan	-10.7758
▁kül	-10.7761
▁kurumlar	-10.7764
▁engellemek	-10.7765
▁yakınında	-10.7765
▁tema	-10.7774
▁ihracat	-10.7774
likten	-10.7778
▁çoğunun	-10.7779
tum	-10.7783
▁gazı	-10.7795
▁samsunspor	-10.7796
ere	-10.7796
▁getirilmiştir	-10.7798
mâ	-10.7799
▁kapasite	-10.7802
ık	-10.7803
▁bitti	-10.7803
▁kule	-10.7806
kh	-10.7806
▁anlamında	-10.7806
▁ring	-10.7807
▁filmleri	-10.7808
lendirme	-10.7809
▁ihraç	-10.7815
▁vahşi	-10.7815
▁oynamıştır	-10.7816
▁senesinde	-10.782
▁zeki	-10.7824
▁lif	-10.7826
vis	-10.7827
▁laboratuvar	-10.7831
▁karma	-10.7831
▁başlığı	-10.7832
tem	-10.7834
cho	-10.7834
▁tıpkı	-10.7837
▁vs	-10.7838
▁etkilenen	-10.7839
▁norman	-10.7842
▁ahit	-10.7842
▁tatil	-10.7846
▁kocası	-10.7848
lamıştı	-10.7849
▁tarihten	-10.785
▁unsurları	-10.785
▁şifre	-10.7851
▁eşya	-10.7852
▁rastgele	-10.7856
▁aristo	-10.7857
▁günümüzdeki	-10.7858
▁inşası	-10.7858
▁konuları	-10.7859
▁gelme	-10.7861
olog	-10.7862
▁girişi	-10.7862
▁halil	-10.7867
▁kars	-10.7867
▁alanının	-10.7868
▁sürece	-10.7868
▁monte	-10.7871
▁köylü	-10.7871
▁hastalığın	-10.7872
▁epi	-10.7877
▁konsol	-10.7878
ec	-10.7878
rah	-10.7878
▁sahada	-10.7878
▁fazlası	-10.7879
▁biçimleri	-10.7879
ky	-10.788
▁geliyordu	-10.788
▁yansıt	-10.7881
bilir	-10.7884
▁şirketleri	-10.7887
▁denetimi	-10.7892
▁kayıplar	-10.7893
şehir	-10.7896
▁jefferson	-10.7898
▁birine	-10.79
▁şartları	-10.7901
▁durdu	-10.7903
▁hayran	-10.7904
▁hikâyesi	-10.7904
▁tanık	-10.7905
▁dilinde	-10.7908
ys	-10.7911
▁almanlar	-10.7911
▁kemik	-10.7912
▁ekmek	-10.7912
▁tanrısı	-10.7917
▁biten	-10.7917
rmak	-10.7926
bus	-10.7927
▁filistinli	-10.7929
▁galler	-10.7929
▁bildirildi	-10.7929
▁dolarlık	-10.793
▁edilme	-10.7931
uch	-10.7935
niz	-10.7937
▁aza	-10.7938
▁serinin	-10.794
▁tohum	-10.7941
▁bağlayan	-10.7942
▁yönetimine	-10.7943
▁bro	-10.7943
▁ölür	-10.7944
▁almıştı	-10.7946
▁gelmişti	-10.7948
▁cla	-10.7949
▁tartışmalı	-10.795
▁kardeşleri	-10.7952
▁bat	-10.7952
mm	-10.7954
▁görevli	-10.7954
▁günün	-10.7954
lam	-10.7954
▁sağlıklı	-10.7956
▁bulunmuş	-10.7957
▁kuvvetlerini	-10.7961
▁yeğeni	-10.7961
▁havaalanı	-10.7961
ium	-10.7965
▁cenaze	-10.7966
▁adams	-10.7968
▁kazanır	-10.797
yacak	-10.7971
▁eksik	-10.7971
▁maddelerin	-10.7975
istler	-10.7975
▁oluşu	-10.7976
▁temeli	-10.7977
▁turan	-10.7977
▁şehirler	-10.7978
77	-10.7981
▁kolej	-10.7986
▁bre	-10.799
▁kanı	-10.7991
▁taktik	-10.7993
-12	-10.7994
▁özet	-10.7995
▁cümle	-10.7997
gam	-10.7997
▁karakterlerin	-10.7998
▁mahmud	-10.8003
▁ürünü	-10.8005
–19	-10.8008
▁75	-10.8013
▁görüşler	-10.8013
▁enerjinin	-10.8014
▁olabilecek	-10.8015
▁denizaltı	-10.8018
▁üretmek	-10.8019
▁üretir	-10.8021
▁şikayet	-10.8025
▁devamı	-10.8025
▁klinik	-10.8025
acaktı	-10.8026
▁sta	-10.8027
▁ah	-10.8031
ışı	-10.8031
▁numarası	-10.8031
▁evde	-10.8033
kale	-10.8038
rü	-10.8038
▁mat	-10.8039
▁koyun	-10.804
ilir	-10.8042
-17	-10.8042
▁1992'	-10.8043
▁karşıt	-10.8046
▁yarar	-10.8047
▁55	-10.8048
ami	-10.8051
▁stone	-10.8053
▁açtığı	-10.8054
▁bize	-10.8055
▁val	-10.8059
▁geçirme	-10.8059
▁pasifik	-10.806
▁kahve	-10.806
▁bırak	-10.8061
▁önderliğinde	-10.8062
pur	-10.8062
▁rakam	-10.8066
dio	-10.8066
sus	-10.8067
▁yılan	-10.8067
▁marmara	-10.8067
▁benzeyen	-10.8068
▁kra	-10.8071
▁istihdam	-10.8072
▁muhafazakâr	-10.8076
▁başından	-10.8085
▁gerçekleşir	-10.8085
▁batıya	-10.8086
ple	-10.809
▁night	-10.8092
zaman	-10.8092
▁edebi	-10.8094
и	-10.8094
▁(16	-10.8094
madan	-10.8095
kah	-10.8096
▁ilgisi	-10.8097
▁alexander	-10.8098
end	-10.8099
▁zinciri	-10.8101
eg	-10.8102
▁ulaşır	-10.8106
▁bilinmemektedir	-10.811
▁yürüyüş	-10.811
▁gidip	-10.8111
▁karabağ	-10.8111
▁görmüştür	-10.8112
çişleri	-10.8114
▁100.	-10.8119
lıyor	-10.8119
▁%6	-10.8119
▁af	-10.812
▁izler	-10.812
▁tekli	-10.8126
▁gösteriyor	-10.8129
▁artar	-10.813
▁libya	-10.8131
▁almayı	-10.8133
▁direnci	-10.8135
mos	-10.8135
▁hong	-10.8137
▁satışı	-10.8139
▁yapıların	-10.814
▁dönüştü	-10.814
▁hükûmetinin	-10.8143
▁kıl	-10.8143
▁amcası	-10.8147
baba	-10.8148
ebilmektedir	-10.8148
▁bırakır	-10.8149
▁yıldızın	-10.8149
dim	-10.8152
▁havzası	-10.8158
▁ağacı	-10.8161
▁faaliyetler	-10.8161
sıdır	-10.8162
leşir	-10.8166
▁anlatı	-10.8166
▁1942	-10.8169
▁ulaşmak	-10.8171
▁düşmesi	-10.8173
▁rüzgar	-10.8174
▁iktidara	-10.8175
▁çıplak	-10.8178
ori	-10.8182
▁yararlan	-10.8182
▁vurdu	-10.8183
▁çekirdeğin	-10.8183
▁65	-10.8184
▁eserin	-10.819
mun	-10.819
▁hâle	-10.8192
▁direktörü	-10.8192
▁tag	-10.8197
▁etkisiz	-10.8198
:1	-10.8198
▁raporu	-10.82
▁yetenekleri	-10.8201
▁ai	-10.8204
kendi	-10.8207
▁ex	-10.8215
sos	-10.8215
▁zeytin	-10.8217
▁söyleyen	-10.8217
fel	-10.8218
▁prix	-10.8219
▁tut	-10.8221
▁1996'	-10.8224
▁kurtarmak	-10.8227
ilmiştir	-10.8227
rs	-10.8229
▁anlamıyla	-10.8229
▁dairesi	-10.8229
▁1974	-10.8234
söz	-10.8235
▁neo	-10.8236
▁aksi	-10.8239
▁helikopter	-10.8239
▁selanik	-10.8239
▁devletinin	-10.8245
▁kapasitesi	-10.8245
▁yönettiği	-10.8246
▁denetim	-10.8246
▁kesim	-10.8248
mit	-10.8253
▁olurlar	-10.8257
▁yaygındır	-10.8259
▁mis	-10.826
▁abbas	-10.826
▁belirterek	-10.8261
▁%2	-10.8265
▁göçebe	-10.8267
▁paket	-10.827
üp	-10.8271
▁ötesinde	-10.8271
▁sözcük	-10.8272
stein	-10.8272
▁adanın	-10.8274
posta	-10.8277
▁çevresi	-10.8278
▁sağlamaktadır	-10.8278
▁sch	-10.8284
▁sosyalizm	-10.8285
▁imkânı	-10.8286
dî	-10.8286
▁isyanı	-10.8286
▁cem	-10.8289
yeceğini	-10.8289
▁aldıkları	-10.829
▁bulgular	-10.8292
▁hanım	-10.8292
о	-10.8295
rıl	-10.8296
▁mutlu	-10.8297
cus	-10.8297
▁kane	-10.8298
▁gözlemci	-10.8302
▁üreticisi	-10.8302
▁gal	-10.8303
▁referandum	-10.8304
▁sipariş	-10.8304
▁olasılık	-10.8305
▁esin	-10.8305
▁gümrük	-10.8308
ilebilir	-10.831
▁gününde	-10.831
yarak	-10.8316
▁kalbi	-10.8317
▁yapının	-10.8319
▁alp	-10.8323
▁manastır	-10.8324
▁voleybol	-10.8326
▁buraya	-10.8328
▁köprüsü	-10.8328
şar	-10.8329
fil	-10.8329
▁kodu	-10.833
▁yaklaş	-10.8332
▁oluşturuldu	-10.8332
▁bölümler	-10.8334
▁kişiden	-10.8337
▁çinli	-10.8337
▁ajansı	-10.8339
▁levha	-10.8341
▁güneybatı	-10.8343
▁belgeler	-10.8345
▁atılan	-10.8353
▁öde	-10.8354
rie	-10.8355
▁getir	-10.8356
▁ikincisi	-10.8357
▁enzim	-10.8359
▁berabere	-10.8359
▁vadi	-10.836
▁boyutu	-10.836
▁1920	-10.8362
▁hazırladığı	-10.8364
▁etkinlikler	-10.8366
▁premier	-10.837
▁kenar	-10.8371
▁verecek	-10.8377
▁çocukluk	-10.8377
▁ulus	-10.8378
▁dokuzuncu	-10.8379
▁verdiğini	-10.838
vas	-10.8381
▁alındığında	-10.8382
▁dolaylı	-10.8392
▁isabet	-10.8392
▁ikincil	-10.8392
▁döngüsü	-10.8393
▁derhal	-10.8393
▁alıyordu	-10.8394
▁oranla	-10.8397
▁3-0	-10.8399
gö	-10.8403
▁haftalık	-10.8405
▁inancı	-10.8405
▁dönüm	-10.8406
vit	-10.841
▁girmiş	-10.8411
▁fabrika	-10.8413
▁çiftlik	-10.8413
▁maliyet	-10.8414
▁ilgisini	-10.8414
▁ülkeden	-10.8415
▁mem	-10.8416
gin	-10.842
▁kümesi	-10.842
▁bölgelere	-10.8421
▁genişlemesi	-10.8421
▁turnuvada	-10.8426
▁tutarlı	-10.8427
▁karaca	-10.8427
▁işlevi	-10.8429
▁bölünme	-10.8429
▁kutu	-10.843
▁reich	-10.8435
▁belirlenen	-10.8439
hl	-10.844
▁eylemleri	-10.844
▁açma	-10.8442
▁şartlar	-10.8443
▁proton	-10.8447
▁birinde	-10.8451
▁mont	-10.8453
▁tümü	-10.8454
▁momentum	-10.8454
ino	-10.8455
▁sevgi	-10.8456
hard	-10.8457
▁noktasına	-10.8457
▁arsenal	-10.8458
▁yolunda	-10.8459
kel	-10.846
▁kurumsal	-10.8461
▁1943	-10.8461
▁çıkmaktadır	-10.8461
ska	-10.8463
▁karakterin	-10.8467
▁boşluk	-10.8468
▁ölümünün	-10.8468
▁yaşamaya	-10.847
meyen	-10.8471
▁mantık	-10.8476
gy	-10.8477
bilim	-10.8478
dışı	-10.8479
▁falcon	-10.848
▁parçacıkların	-10.8482
▁öldürmek	-10.8482
▁joe	-10.8486
last	-10.8487
ecekti	-10.8489
▁binalar	-10.8491
sc	-10.8492
▁oturum	-10.8494
▁ettirdi	-10.8496
▁büyümesi	-10.8497
▁yaşamını	-10.85
aş	-10.8501
▁eşdeğer	-10.8503
▁türkleri	-10.8504
beyaz	-10.8507
▁muhtemel	-10.8508
▁yazısı	-10.8509
▁füze	-10.8509
▁kısımları	-10.851
▁nero	-10.8514
▁gelecekteki	-10.8515
sha	-10.8517
pek	-10.8518
nas	-10.852
▁numaradan	-10.8522
▁sm	-10.8522
▁hiçbiri	-10.8523
▁hatları	-10.8524
▁geliştirilmiş	-10.8525
▁oluşum	-10.8528
▁anlaşmaya	-10.8528
▁mas	-10.8529
▁rast	-10.853
▁kaplama	-10.8534
lah	-10.8536
▁isten	-10.8539
kli	-10.8541
▁kontu	-10.8546
▁formu	-10.8547
cent	-10.855
▁hastane	-10.8551
kça	-10.8551
▁gerekiyordu	-10.8552
▁dis	-10.8555
▁ardı	-10.8557
▁duyar	-10.8561
▁çıkarmak	-10.8562
yorlardı	-10.8566
▁yüksektir	-10.8567
slâm	-10.8567
▁sahneye	-10.8569
ú	-10.8569
▁sibirya	-10.8569
▁tanıttı	-10.857
ice	-10.8571
▁takma	-10.8572
▁kuzeye	-10.8575
▁soyundan	-10.8576
üne	-10.8577
ity	-10.8579
▁geçmektedir	-10.858
▁çöz	-10.8581
▁teoriler	-10.8582
log	-10.8586
▁mirası	-10.8586
▁hanedan	-10.8587
▁gündeme	-10.8591
▁vietnam	-10.8592
▁osetya	-10.8592
▁zelanda	-10.8592
▁franklin	-10.8594
iki	-10.8594
ire	-10.8594
▁kazanmak	-10.8595
lum	-10.8595
▁gösteriler	-10.8596
▁yorumlar	-10.8598
▁hareketini	-10.8602
▁başrol	-10.8603
▁taşınması	-10.8603
▁icat	-10.8603
▁kaybetme	-10.8603
]],	-10.8605
▁ulaşıl	-10.8605
▁cismin	-10.8605
▁atmosfer	-10.8606
▁fas	-10.8611
▁sanatçının	-10.8612
▁oluşturmuştur	-10.8615
▁ispat	-10.8615
imi	-10.8617
▁yayıldı	-10.8619
ebilmesi	-10.8619
▁48	-10.8622
▁değişiklikleri	-10.8623
▁geometri	-10.8625
▁düzenlediği	-10.8628
▁görece	-10.863
▁kil	-10.8632
▁entertainment	-10.8633
▁figür	-10.8635
▁artı	-10.8636
cia	-10.8636
▁kalk	-10.8638
▁politikaları	-10.864
▁(4	-10.8642
▁yoksun	-10.8642
larken	-10.8643
▁yöne	-10.8643
▁1973	-10.8644
▁rejimi	-10.8646
▁dağlar	-10.8648
▁davran	-10.8652
▁muhafız	-10.8652
▁tuş	-10.8652
▁şüpheli	-10.8655
▁atlantik	-10.8659
▁genelkurmay	-10.8659
▁çıkıp	-10.8659
▁telgraf	-10.866
▁mahmut	-10.866
ward	-10.866
▁denklemi	-10.866
▁başarıları	-10.8661
▁çöl	-10.8661
▁gelin	-10.8662
▁duyma	-10.8662
▁gücüne	-10.8664
▁çalışmalarının	-10.8665
ksiyon	-10.8668
elli	-10.8669
▁kentsel	-10.8672
▁direnç	-10.8672
▁dünyasında	-10.8675
▁yıkım	-10.8676
far	-10.8678
▁hizmetler	-10.8679
back	-10.868
▁kayseri	-10.8682
▁konut	-10.8685
▁noel	-10.8688
▁1915	-10.8688
lot	-10.8689
istik	-10.869
▁ilginç	-10.8692
▁bağlanma	-10.8693
ted	-10.8696
▁kalanı	-10.8699
▁sisteminde	-10.8699
▁herkesin	-10.8703
▁toplantısında	-10.8705
lemiştir	-10.8707
ünde	-10.871
▁getirilmesi	-10.8711
▁geçirilmesi	-10.8711
▁sunar	-10.8711
▁mani	-10.8712
abad	-10.8712
▁kazanma	-10.8714
▁sürmektedir	-10.8714
▁yapıya	-10.8715
▁doğuda	-10.8715
▁olduktan	-10.8715
▁bayram	-10.872
▁yasalar	-10.872
▁ayının	-10.872
▁oyunlar	-10.8723
▁üs	-10.8724
▁boşluğu	-10.8725
ılabilir	-10.8726
▁aşaması	-10.8726
▁ross	-10.8728
liğinin	-10.8728
▁ayrılarak	-10.8729
▁alçak	-10.873
4)	-10.873
▁sim	-10.8734
▁giyme	-10.8734
▁mekanizması	-10.8734
▁37	-10.8734
eh	-10.8735
srailli	-10.8736
gerçekleştirdiği	-10.8741
bon	-10.8743
▁kuvvetli	-10.8743
örü	-10.8744
bl	-10.8744
▁(15	-10.8745
▁görünüm	-10.8745
▁aksa	-10.8747
time	-10.8748
▁bıçak	-10.875
▁ribaund	-10.875
▁tarihine	-10.8752
▁duran	-10.8753
▁kapak	-10.8753
▁kararını	-10.8754
▁çağırdı	-10.8758
▁parmak	-10.876
▁38	-10.8762
▁tamamlandı	-10.8763
▁durma	-10.8763
▁azaltma	-10.8763
▁gizlice	-10.8763
▁üstünlüğü	-10.8769
▁seçimlerde	-10.8771
▁barcelona	-10.8773
▁kullanıcıların	-10.8774
▁dikey	-10.8775
▁hapishane	-10.8775
▁uçakları	-10.8777
▁girerek	-10.8777
▁önlemler	-10.8777
▁madalya	-10.878
sam	-10.8782
▁katılımcı	-10.8786
mür	-10.8788
▁mağara	-10.879
▁yahudilere	-10.8794
▁düşünme	-10.8795
▁trafik	-10.8796
▁çıkarılması	-10.8797
▁doğumlu	-10.8802
▁oyuncuların	-10.8802
—	-10.8803
▁yükü	-10.8814
▁yoksul	-10.8816
sur	-10.882
▁memnun	-10.882
▁dahası	-10.882
▁izni	-10.8822
pho	-10.8822
▁duyulan	-10.8823
▁türkçesi	-10.8826
▁geçmek	-10.8826
oğulları	-10.8827
▁olimpiyatları	-10.8831
▁kırdı	-10.8833
slav	-10.8833
▁katılmak	-10.8834
▁chicago	-10.8835
▁şehrinin	-10.8835
▁kala	-10.8836
▁gösterime	-10.8837
▁değişme	-10.8837
▁koordinat	-10.8837
ston	-10.8839
▁resimleri	-10.8841
ther	-10.8843
▁birliklerini	-10.8845
▁görüntüleme	-10.8848
▁liderliğindeki	-10.8848
▁edge	-10.8851
vat	-10.8855
zon	-10.8857
▁elektriksel	-10.8859
▁tim	-10.8861
▁digimon	-10.8865
emi	-10.8865
▁dövüş	-10.8865
▁yener	-10.8865
▁heyet	-10.8865
▁hristiyanlar	-10.8866
tch	-10.8868
▁“"	-10.8868
▁yenilgiy	-10.8869
▁mit	-10.887
▁potansiyeli	-10.887
▁düzgün	-10.8873
▁geçişi	-10.8875
▁görüşmeler	-10.8878
▁şövalye	-10.8879
▁çözümü	-10.8882
▁1997'	-10.8882
▁servisi	-10.8884
kos	-10.8886
pres	-10.889
▁takiben	-10.8892
▁yönündeki	-10.8892
▁seçilmiştir	-10.8893
▁şehirleri	-10.8894
▁dönmesi	-10.8895
mizi	-10.8901
▁kitaplar	-10.8902
dîn	-10.891
▁ambrose	-10.8911
▁darwin	-10.8912
▁açıklaması	-10.8917
▁ep	-10.8922
▁intikam	-10.8923
bert	-10.8926
▁başlatıldı	-10.8927
▁are	-10.8928
▁kurtar	-10.893
▁sakat	-10.893
▁temin	-10.8932
▁nil	-10.8932
şah	-10.8934
▁kozmik	-10.8935
▁ihmal	-10.8935
▁sürüm	-10.8936
▁geleneği	-10.8938
▁geçip	-10.894
güney	-10.894
tiği	-10.8943
sah	-10.8944
ring	-10.8944
▁iz	-10.8947
▁hukuku	-10.8952
▁gözü	-10.8952
▁olaydan	-10.8953
▁karşılamak	-10.8954
▁iklimi	-10.8955
▁yoluna	-10.8957
▁kubbe	-10.8958
▁patlayıcı	-10.8958
▁diller	-10.8963
▁hollywood	-10.8964
▁element	-10.8966
▁ısrar	-10.8969
▁tat	-10.897
▁hareketinin	-10.8972
kay	-10.8973
jan	-10.8973
▁tamir	-10.8974
▁akın	-10.8975
▁1941'	-10.8976
▁müzisyen	-10.8977
tim	-10.8979
▁nihayet	-10.8979
oksi	-10.898
▁hollandalı	-10.898
▁savunur	-10.8981
▁şov	-10.8984
▁barındıran	-10.8984
▁kurumları	-10.8985
head	-10.8985
sion	-10.8985
▁yazılmıştır	-10.8988
▁gezegenin	-10.8988
▁hapse	-10.8988
▁söylenir	-10.8991
▁alınma	-10.8993
▁des	-10.8995
▁kurulduğu	-10.8996
▁vektör	-10.8998
▁ilgilidir	-10.9003
▁şeklindeki	-10.9011
atif	-10.9012
asyonu	-10.9013
▁yüzyıllarda	-10.9014
▁day	-10.9016
▁üçü	-10.9017
▁eğilimi	-10.9019
▁merdiven	-10.902
finanse	-10.9022
▁öğrendi	-10.9022
▁shane	-10.9023
▁kurak	-10.9025
▁etrafındaki	-10.9025
▁eti	-10.9026
▁sanatçısı	-10.9027
▁yürüdü	-10.9028
▁farsça	-10.9029
▁gerektiren	-10.9031
▁anlamlı	-10.9032
laşması	-10.9037
▁yoğunluk	-10.9039
book	-10.9041
leşmesi	-10.9041
▁adındaki	-10.9043
▁takdir	-10.9051
▁meta	-10.9053
ıldığı	-10.9054
leridir	-10.9059
▁verilme	-10.9059
lenmektedir	-10.9063
pat	-10.9063
▁sayılır	-10.9063
▁1968	-10.9065
▁şiiri	-10.9066
▁etkiye	-10.9066
▁eğilim	-10.9072
▁gelişmekte	-10.9072
▁cup	-10.9072
▁recep	-10.9075
▁çeker	-10.9076
▁çamur	-10.9081
▁ihtimali	-10.9081
▁hazırladı	-10.9083
▁reg	-10.9083
▁sayımı	-10.9085
zam	-10.9085
▁sahası	-10.9086
▁sö	-10.9086
▁boyutları	-10.9089
lanmıştı	-10.909
▁dağıtım	-10.9091
▁yerler	-10.9093
ılarak	-10.9096
▁tarafına	-10.9096
▁ekosistem	-10.9098
▁göstererek	-10.9098
▁kalmıştı	-10.9098
▁verimliliği	-10.9101
lemiş	-10.9104
ung	-10.9104
dâ	-10.9106
liyor	-10.9108
▁ima	-10.911
▁kalitesi	-10.9113
▁1940	-10.9114
inci	-10.9114
▁ülkelerinde	-10.9115
maları	-10.9116
bkz	-10.9122
çiler	-10.9122
1)	-10.9123
dılar	-10.9124
▁uzan	-10.9124
ning	-10.9126
▁videosu	-10.9127
▁mücadelesi	-10.9128
▁olmuşlardır	-10.9129
▁davranışı	-10.9129
▁nesneler	-10.9129
▁kuvvetlerin	-10.9129
▁geçirmesi	-10.913
▁torunu	-10.913
▁giyim	-10.9131
▁ruhu	-10.9132
hur	-10.9134
▁"“	-10.9136
▁kesme	-10.9137
▁azalma	-10.9137
▁enfeksiyon	-10.9139
▁göğüs	-10.9146
▁vii	-10.9147
rio	-10.9147
▁süresince	-10.9147
▁şefi	-10.9151
▁ram	-10.9157
ildiği	-10.9159
▁kıyılarında	-10.9159
▁sayılan	-10.9159
▁maliyeti	-10.9162
▁çekme	-10.9163
bs	-10.9163
nos	-10.9165
pl	-10.9166
▁grafik	-10.9166
▁etkinliği	-10.9168
▁etmeleri	-10.917
▁kentinde	-10.9173
iler	-10.9174
▁korsan	-10.9176
▁unsurlar	-10.9179
▁başladığında	-10.9181
▁ölçümü	-10.9181
▁1995'	-10.9183
▁bahar	-10.9183
▁etmekteydi	-10.9184
rey	-10.9184
▁sevdiği	-10.9184
▁ölme	-10.9185
▁gerçekçi	-10.9186
▁kafkas	-10.9188
▁katman	-10.9188
▁içeri	-10.9188
▁grupta	-10.9189
▁dağılım	-10.919
▁bronz	-10.9193
▁green	-10.9194
▁röportaj	-10.9198
▁alanındaki	-10.9199
▁yükselme	-10.9201
nak	-10.9203
▁yapılanma	-10.9204
▁insülin	-10.9206
▁paketi	-10.9208
bro	-10.9208
tti	-10.9209
▁oluştuğu	-10.9214
▁şiddetle	-10.9216
▁prof	-10.9216
▁çalışmada	-10.9216
▁entegre	-10.9217
abildi	-10.9219
▁ag	-10.922
▁ilişkilerin	-10.922
▁askerlerinin	-10.9223
▁öldürme	-10.9223
▁karşılaştırma	-10.9224
zin	-10.9224
▁gra	-10.9228
▁monarşi	-10.9229
▁hesabı	-10.9229
▁fabrikası	-10.9229
▁bağlar	-10.9232
▁derecesi	-10.9235
▁1961	-10.9237
▁sütun	-10.9238
▁gi	-10.924
▁emniyet	-10.9241
▁birtakım	-10.9241
▁çekmek	-10.9242
mine	-10.9247
▁sulama	-10.9251
▁pul	-10.9252
▁batıda	-10.9252
▁kullanımını	-10.9252
▁mektubu	-10.9255
▁—	-10.9258
▁duygu	-10.9259
▁takımda	-10.9261
▁uçağın	-10.9262
▁prensi	-10.9262
▁albümden	-10.9263
▁sembolü	-10.9263
▁yayınları	-10.9264
▁tütün	-10.9265
▁harika	-10.9265
▁şarkıların	-10.9265
▁sami	-10.9266
▁oluyordu	-10.927
▁tutma	-10.9271
▁metro	-10.9271
mis	-10.9272
▁mimarlık	-10.9272
▁durumlar	-10.9273
▁yaşadıkları	-10.9274
▁gereklidir	-10.9281
die	-10.9283
▁sayısız	-10.9284
▁tabur	-10.9285
▁1919	-10.9288
▁heyecan	-10.9289
▁belirtmektedir	-10.9291
▁47	-10.9291
▁bulunmamaktadır	-10.9292
▁bbc	-10.9292
comp	-10.9295
▁bulduğu	-10.9295
▁ortamı	-10.9296
▁desteğiyle	-10.9307
▁seviyede	-10.9309
▁örtü	-10.931
▁taklit	-10.931
▁döneminden	-10.9311
▁geçmeden	-10.9312
▁düğün	-10.9312
▁1965	-10.9312
tah	-10.9313
300	-10.9314
▁konuşulan	-10.9316
▁başarılar	-10.9316
▁denklemleri	-10.9316
▁amaçlayan	-10.9316
▁söyleme	-10.9317
▁victor	-10.9322
▁düşündüğü	-10.9323
▁kullanılma	-10.9323
▁tarihî	-10.9323
▁tutuklu	-10.9324
▁uyan	-10.9327
▁kıyısında	-10.9327
term	-10.9328
lanıyordu	-10.933
▁bölümünün	-10.933
▁kör	-10.9332
▁birbirini	-10.9334
▁sanal	-10.9336
▁pozisyon	-10.9338
▁nihayetinde	-10.9339
▁araştır	-10.934
▁hastalıklar	-10.9348
▁that	-10.9348
▁pc	-10.935
▁müdahalesi	-10.9351
olojik	-10.9351
▁gerekçe	-10.9352
abileceğini	-10.9352
▁bağlamda	-10.9355
▁bahçe	-10.9356
▁hırvatistan	-10.9362
▁sünni	-10.9362
▁belarus	-10.9363
▁eli	-10.9363
▁kanseri	-10.9363
▁nefes	-10.9368
▁house	-10.9369
▁mus	-10.937
▁yönet	-10.9373
▁yapıp	-10.9376
skop	-10.9377
▁imkân	-10.9379
▁çekilmesi	-10.938
▁uzakta	-10.938
▁yönetiminin	-10.938
▁gözlemler	-10.9384
▁savaşlar	-10.9386
▁yapısını	-10.9386
▁karayolu	-10.9387
▁çektiği	-10.9388
▁brian	-10.9389
▁yemin	-10.939
▁ilkesi	-10.939
▁işlemler	-10.9394
▁kaplı	-10.9395
▁atmıştır	-10.9401
▁kısaca	-10.9403
▁öğreti	-10.9404
erkek	-10.9405
vers	-10.9405
▁yetenekli	-10.9405
▁çalışmaktadır	-10.9406
idi	-10.9408
▁binanın	-10.9408
▁yönelim	-10.9408
▁1975	-10.9409
▁üyeler	-10.941
▁verilebilir	-10.9411
▁sabahı	-10.9412
▁okula	-10.9413
▁girit	-10.9414
▁toplumu	-10.9415
▁kayma	-10.9417
▁sapma	-10.9418
▁biyoloji	-10.9419
sil	-10.942
▁bozulma	-10.942
lanıyor	-10.9422
▁türlerin	-10.9425
▁açlık	-10.9426
▁cezasına	-10.9426
▁diz	-10.9426
▁icra	-10.9427
▁1950	-10.9429
▁sin	-10.943
▁yazarın	-10.9432
▁yazmaya	-10.9432
rî	-10.9432
▁noktaları	-10.9434
hon	-10.9434
▁rövanş	-10.9434
▁kapsar	-10.9436
▁edilemez	-10.9439
▁etken	-10.9441
▁gezegenler	-10.9441
▁gor	-10.9443
day	-10.9445
▁she	-10.9446
▁dost	-10.9447
▁sting	-10.945
▁işle	-10.9453
▁çekilmek	-10.9457
▁kâğıt	-10.9459
▁soğutma	-10.9459
▁soyu	-10.946
lor	-10.9462
▁geçit	-10.9462
▁mike	-10.9462
▁oksit	-10.9467
а	-10.9469
▁kullanıcılar	-10.9471
▁amatör	-10.9475
▁peri	-10.9475
▁oynama	-10.9476
▁iddiaları	-10.9476
▁soykırım	-10.9478
▁cilt	-10.9479
▁geldiler	-10.9481
▁sürpriz	-10.9483
▁1948	-10.9484
▁animasyon	-10.9484
▁sistematik	-10.9484
▁yasağı	-10.9484
▁tüccar	-10.9484
▁potter	-10.9484
▁budist	-10.9486
▁düşmüştür	-10.9487
mor	-10.9487
arı	-10.9492
▁caddesi	-10.9492
quin	-10.9492
▁mag	-10.9493
▁dönüşümü	-10.9495
▁edeceğini	-10.9496
▁pencere	-10.9499
▁yerleşme	-10.95
▁arabası	-10.9501
▁etkinlikleri	-10.9502
▁hell	-10.9505
▁may	-10.9506
▁kilo	-10.9506
▁beraberinde	-10.9506
▁endonezya	-10.9508
▁rihanna	-10.9508
▁konak	-10.9508
▁radyoaktif	-10.9508
zlanda	-10.9509
▁tanımlayan	-10.951
▁belirleme	-10.951
▁said	-10.9514
abd	-10.9516
▁şimdiki	-10.9517
▁fren	-10.9518
▁bakınız	-10.952
all	-10.9521
▁çete	-10.9523
▁deyişle	-10.9524
▁florida	-10.9533
bre	-10.9533
▁üstünlük	-10.9534
▁sergiledi	-10.9536
▁toplantısı	-10.9538
▁itici	-10.9539
▁part	-10.954
▁taht	-10.9542
▁görülme	-10.9545
▁oyunda	-10.9549
▁vermeyi	-10.9551
▁kullan	-10.9551
▁manevra	-10.9554
▁şekilleri	-10.9555
▁geometrik	-10.9555
▁3-1	-10.9556
▁arslan	-10.9556
▁kayı	-10.9556
▁floransa	-10.9557
▁şehirlerde	-10.9559
▁yayınlanması	-10.956
▁çeşitleri	-10.9564
▁ideoloji	-10.9565
zade	-10.9565
▁blu	-10.9566
▁store	-10.9567
▁toplandı	-10.9569
▁kişiliği	-10.9569
▁kaynaklarda	-10.957
fal	-10.9572
▁kuruluşlar	-10.9576
▁durumdadır	-10.958
kap	-10.958
▁fırsatı	-10.958
▁bill	-10.9581
▁olasılıkla	-10.9582
devlet	-10.9582
ges	-10.9582
▁young	-10.9583
▁zeka	-10.9586
▁istisna	-10.9586
▁köken	-10.9588
▁teknolojik	-10.959
▁birliklerin	-10.9591
▁ülkelere	-10.9593
▁olmasıyla	-10.9595
▁tele	-10.9596
lemek	-10.9597
▁it	-10.9598
▁ahlak	-10.96
▁problemler	-10.9602
▁smackdown	-10.9602
▁olimpiyat	-10.9603
▁grev	-10.9605
siniz	-10.9606
avi	-10.9606
▁bayrağı	-10.9607
▁horasan	-10.9607
▁vladimir	-10.9607
▁160	-10.9608
▁açıklamalar	-10.9609
likler	-10.961
▁tüketimi	-10.961
amayan	-10.9616
°	-10.9616
▁firması	-10.9618
▁öğrenir	-10.9618
sem	-10.962
zı	-10.9621
▁kanlı	-10.9623
▁türe	-10.9625
▁içerisindeki	-10.9625
ell	-10.9627
▁darbesi	-10.9629
▁will	-10.963
▁gür	-10.963
▁muhafaza	-10.963
▁kült	-10.9632
▁mürettebat	-10.9634
cal	-10.9634
▁ayırma	-10.9635
▁yönetimindeki	-10.9635
▁sınav	-10.9635
▁ülkelerden	-10.9636
▁müslümanların	-10.9637
▁bulundukları	-10.9637
▁fenomen	-10.9641
vor	-10.9641
▁dalgası	-10.9643
▁taraftar	-10.9643
▁kabuk	-10.9645
▁karadağ	-10.9646
ella	-10.9648
sındaki	-10.9651
▁saatlerinde	-10.9651
para	-10.9652
▁sudan	-10.9652
▁arı	-10.9653
▁tazminat	-10.9654
▁muazzam	-10.9657
▁yayılma	-10.9657
▁maddeleri	-10.9658
▁volkanik	-10.9659
yerek	-10.966
sosyal	-10.966
▁1-1	-10.9661
▁değerlendiril	-10.9664
luğunu	-10.9667
▁üçgen	-10.9667
▁hakan	-10.9669
▁american	-10.9671
▁bireyin	-10.9672
▁kültürünün	-10.9675
▁çaldı	-10.9679
▁yuvarlak	-10.9682
▁esasen	-10.9683
▁öldürülmüştür	-10.9683
▁adaylık	-10.9684
▁sü	-10.9686
▁1976	-10.9689
▁bush	-10.9691
▁mod	-10.9694
▁emek	-10.9694
▁istilası	-10.9695
▁takımında	-10.9695
sın	-10.9699
▁eu	-10.9699
kas	-10.9699
▁komutanları	-10.9703
▁marshall	-10.9707
▁alemdar	-10.9707
▁imkânsız	-10.9708
▁harp	-10.9708
▁içe	-10.9708
▁açılmıştır	-10.9709
▁oysa	-10.971
▁eylemi	-10.971
▁anayasal	-10.9711
▁ilave	-10.9712
▁pri	-10.9713
rov	-10.9714
▁çember	-10.9714
nis	-10.9716
▁kurmaya	-10.9718
▁kariyerine	-10.9718
▁bölümün	-10.972
▁oluşturulması	-10.972
▁kurallar	-10.9721
▁versiyon	-10.9725
aba	-10.9727
shire	-10.9728
▁materyal	-10.9731
pr	-10.9732
▁yunus	-10.9733
▁izleme	-10.9734
▁infaz	-10.9735
▁dünyayı	-10.9735
▁çağrısı	-10.9737
▁alıntı	-10.9738
▁belirlenir	-10.9738
chan	-10.9739
▁bölgeden	-10.9739
rdı	-10.974
▁vücudun	-10.974
▁koleksiyonu	-10.9744
▁tanınma	-10.9746
▁asur	-10.9748
gli	-10.9749
▁içer	-10.9753
▁düzeyinde	-10.9754
▁araştırması	-10.9755
iyye	-10.9755
ا	-10.9757
▁gösterilir	-10.9758
undan	-10.9758
sco	-10.976
▁kurmuştur	-10.9762
▁gelince	-10.9762
▁1917	-10.9764
▁kariyerinde	-10.9765
▁toplar	-10.9765
▁izleyici	-10.9766
▁milan	-10.9768
mina	-10.9773
▁turunda	-10.9774
▁ilerledi	-10.9774
abildiği	-10.9775
geç	-10.9778
▁göstermesi	-10.9779
laşan	-10.978
е	-10.978
▁noktalar	-10.978
▁baas	-10.9782
izasyon	-10.9784
▁yöneldi	-10.9785
▁dal	-10.9785
▁gerçekleşmiştir	-10.9786
▁imparatoru	-10.9787
▁desteklenen	-10.9788
▁sözler	-10.9791
▁med	-10.9791
▁işareti	-10.9794
▁konusudur	-10.9798
▁kuram	-10.9799
▁orduya	-10.98
▁duyuruldu	-10.9802
▁ze	-10.9806
▁alex	-10.9807
▁swift	-10.9808
▁elverişli	-10.9808
▁galileo	-10.9808
▁olmaksızın	-10.9808
▁göndererek	-10.9808
▁elbise	-10.981
▁lisa	-10.981
▁yalan	-10.981
▁filminin	-10.9813
▁şubesi	-10.9814
▁%7	-10.9818
fen	-10.982
▁vezir	-10.9821
▁ilişkiye	-10.9821
▁kolları	-10.9822
leşti	-10.9824
▁şube	-10.9826
rp	-10.9828
des	-10.9829
▁tehlikesi	-10.9829
▁bahseder	-10.983
▁misafir	-10.9833
▁hitap	-10.9834
ture	-10.9834
insan	-10.9835
▁je	-10.9839
cik	-10.9841
▁walter	-10.9842
and	-10.9843
▁1977	-10.9843
▁karakterleri	-10.9843
hoo	-10.9844
▁kaz	-10.9848
▁yapılmasını	-10.9849
▁başlarına	-10.985
▁müziğin	-10.985
▁ettikten	-10.985
▁evcil	-10.9851
dön	-10.9855
▁harf	-10.9856
▁harris	-10.9857
fu	-10.9857
▁başlama	-10.9857
▁silahları	-10.9858
="2"|	-10.9858
▁imzalandı	-10.986
▁ronaldo	-10.9861
_1	-10.9862
rich	-10.9865
▁geleceği	-10.9866
▁kuvvetlerine	-10.9867
▁1978	-10.9869
uri	-10.9869
▁çevrimiçi	-10.9871
▁vazgeç	-10.9872
likle	-10.9872
amerikan	-10.9875
▁düşme	-10.9875
▁teknolojileri	-10.9878
▁cüce	-10.9881
▁salgın	-10.9881
mond	-10.9883
▁boston	-10.9885
chen	-10.9886
▁eylemler	-10.9886
▁termal	-10.9886
▁görüşlerini	-10.9887
▁düşünüyordu	-10.9889
▁sara	-10.9891
▁nişan	-10.9892
▁800	-10.9892
▁açıklamak	-10.9895
got	-10.9895
▁alanların	-10.9896
▁teoremi	-10.9896
▁42	-10.9897
▁3-2	-10.9897
▁teorisinin	-10.9902
▁rakipleri	-10.9902
ona	-10.9905
yalı	-10.9906
tme	-10.991
▁teksas	-10.9911
▁etiket	-10.9911
▁oluşmuştur	-10.9911
zü	-10.9911
vâ	-10.9912
fl	-10.9913
▁soyut	-10.9914
▁duvarları	-10.9915
▁partiler	-10.9916
▁sisteme	-10.9916
▁mezarlığı	-10.9919
▁enver	-10.992
▁yaratma	-10.9921
▁finali	-10.9921
▁oyuncuları	-10.9922
▁tabanı	-10.9926
▁ilişkilerini	-10.9927
▁bilimleri	-10.9928
▁mektupta	-10.9931
▁görüntüler	-10.9932
yacağı	-10.9932
σ	-10.9935
▁entelektüel	-10.9935
▁epstein	-10.9935
▁wilson	-10.9937
▁ısınma	-10.994
▁güne	-10.9941
irler	-10.9942
▁hor	-10.9943
▁formasıyla	-10.9944
▁memlûk	-10.9944
▁gre	-10.9947
▁asi	-10.9948
▁kulak	-10.995
▁benzerlik	-10.9952
▁ölçüm	-10.9952
▁kesimi	-10.9954
ica	-10.9957
kri	-10.9961
▁claudius	-10.9961
metrik	-10.9962
▁birimler	-10.9963
▁kw	-10.9964
▁pist	-10.9965
cer	-10.9968
▁kes	-10.9968
▁from	-10.9968
▁turnuvası	-10.9969
▁kaldırma	-10.997
▁ilçesi	-10.9971
▁yöneten	-10.9972
▁sinan	-10.9975
▁inanan	-10.9979
ıdır	-10.998
▁yaşına	-10.998
▁anlamak	-10.998
ıyorlardı	-10.9984
▁uygulan	-10.9985
ira	-10.9985
▁ilkeleri	-10.9987
▁öcalan	-10.9987
▁dostluk	-10.9988
▁okulun	-10.9996
▁avukat	-10.9998
▁hayatına	-10.9998
▁tap	-10.9999
▁üyeliği	-11
▁seçilmesi	-11.0001
▁müzakere	-11.0002
▁kafes	-11.0003
bah	-11.0003
fr	-11.0005
▁konstantin	-11.0005
▁adları	-11.0005
ğe	-11.0006
▁%9	-11.0006
▁çabası	-11.0007
▁beynin	-11.0008
▁bek	-11.0009
▁koltuk	-11.0013
▁tamamlayan	-11.0013
▁belirler	-11.0013
▁etmez	-11.0014
▁64	-11.0014
▁marksist	-11.0016
▁ürünlerin	-11.0018
▁plaj	-11.002
fur	-11.0021
▁mini	-11.0022
:00	-11.0024
▁seviyesinde	-11.0024
side	-11.0025
▁federasyon	-11.0026
▁kahverengi	-11.0026
dri	-11.0028
▁yazması	-11.0031
▁yakalama	-11.0034
taşı	-11.0034
▁benjamin	-11.0038
▁churchill	-11.0038
▁karakteristik	-11.004
▁antalyaspor	-11.004
bek	-11.004
▁voltaj	-11.0041
▁mari	-11.0041
▁victoria	-11.0041
▁fiyatları	-11.0042
lia	-11.0043
org	-11.0048
▁1966	-11.0048
▁alıyor	-11.0049
▁ameliyat	-11.0053
ân	-11.0057
▁kırılma	-11.0057
sizlik	-11.0061
▁papalık	-11.0062
▁sıralama	-11.0063
▁rönesans	-11.0064
▁christian	-11.0065
▁kuşak	-11.0065
▁statü	-11.0065
▁spacex	-11.0066
▁taşıyıcı	-11.0066
▁şahin	-11.0067
▁mekanizma	-11.0069
▁nedenleri	-11.0069
landırma	-11.0071
göz	-11.0071
tv	-11.0071
▁demo	-11.0074
▁bayramı	-11.0074
bak	-11.0075
▁1939	-11.0075
▁1972	-11.0075
▁liderlik	-11.008
▁mekân	-11.0082
▁best	-11.0082
▁liderliği	-11.0083
▁baron	-11.0084
▁steve	-11.0085
etti	-11.0085
bâ	-11.0086
ika	-11.0088
umu	-11.009
▁mersin	-11.0091
memiş	-11.0091
▁form	-11.0092
▁ocağı	-11.0095
▁efes	-11.0096
ν	-11.0097
▁kullandıkları	-11.0098
▁tetik	-11.0098
▁kürtler	-11.0099
▁kategori	-11.0101
▁hazırlama	-11.0102
▁43	-11.0102
demir	-11.0103
▁askerlik	-11.0104
▁peru	-11.0105
kış	-11.0107
▁destekler	-11.011
▁sayısında	-11.0111
▁taburu	-11.0113
▁sporcu	-11.0115
▁nasreddin	-11.0117
▁puanla	-11.0117
▁mekke	-11.0118
▁merkezinin	-11.0119
▁güce	-11.012
▁fox	-11.0121
▁belirlenmiştir	-11.0122
▁galaksi	-11.0123
ub	-11.0123
tter	-11.0128
▁nötrino	-11.0129
üç	-11.0129
▁dor	-11.013
spanyolca	-11.0132
▁istiyordu	-11.0132
▁sc	-11.0135
ula	-11.0138
▁ailesine	-11.014
biz	-11.014
▁çizgisi	-11.014
▁şovunda	-11.0142
▁biyografi	-11.0142
▁jersey	-11.0143
▁layık	-11.0143
▁bakıldığında	-11.0143
▁edeceği	-11.0144
▁gündüz	-11.0145
▁sır	-11.0145
▁rekorunu	-11.0145
▁kuşağı	-11.0146
▁bez	-11.0148
▁savaşmak	-11.0148
▁farkında	-11.015
▁taşımaktadır	-11.015
▁kitapları	-11.0152
▁projeleri	-11.0152
smet	-11.0153
▁olgu	-11.0154
▁beğeni	-11.0154
▁buluş	-11.0155
▁rekoru	-11.0156
▁high	-11.0156
▁beyliği	-11.0157
▁kullanmaktadır	-11.0157
▁oluştu	-11.0158
▁sina	-11.0159
▁1981	-11.016
▁fikirleri	-11.0162
▁prenses	-11.0168
▁spesifik	-11.0169
▁zevk	-11.0169
▁finans	-11.017
▁siyaseti	-11.0172
▁eleştirdi	-11.0175
▁artırmak	-11.0176
▁çalma	-11.0177
▁çalış	-11.0178
▁sıkça	-11.0179
▁üzeri	-11.018
▁noktaya	-11.0184
▁rahip	-11.0186
▁zamanki	-11.0186
▁kızılderili	-11.0187
▁kazandırdı	-11.0189
lediği	-11.0191
▁ilçesinde	-11.0194
▁belirlenmesi	-11.0195
▁ayakkabı	-11.0195
▁paylaştı	-11.0195
▁jan	-11.0197
▁romantik	-11.0199
▁sürülen	-11.02
▁bırakmıştır	-11.02
yal	-11.0202
▁yararlı	-11.0203
▁sarmal	-11.0203
▁mora	-11.0206
▁yunanlar	-11.0206
leştirilmiştir	-11.0211
uc	-11.0212
malı	-11.0213
▁operasyonları	-11.0214
▁yayınladığı	-11.0216
▁karşısına	-11.0216
▁çar	-11.0217
▁nor	-11.0219
▁davranışlar	-11.0219
▁raf	-11.022
meleri	-11.0221
▁tepesi	-11.0225
▁karşılığı	-11.0226
▁tüketici	-11.0231
▁21.	-11.0232
▁grubuna	-11.0233
▁karaya	-11.0235
rı	-11.0235
▁okullar	-11.0237
▁(10	-11.0237
key	-11.0239
siyon	-11.0239
▁değerinde	-11.024
▁hamam	-11.0241
bot	-11.0241
pt	-11.0245
▁hart	-11.0245
▁bob	-11.0247
▁yetkili	-11.0247
▁voldemort	-11.0248
▁nasyonal	-11.0248
▁belirtilmiştir	-11.0249
lamak	-11.0249
▁mermi	-11.025
▁uyarınca	-11.025
kır	-11.0251
▁konserler	-11.0251
lanacak	-11.0254
▁yetenek	-11.0259
nız	-11.0264
▁komut	-11.0266
▁yüksekliği	-11.0267
▁filme	-11.0267
▁fırın	-11.0269
▁adlandırıldı	-11.027
▁geliştirildi	-11.027
▁hardy	-11.0271
cul	-11.0271
şleri	-11.0272
▁sakarya	-11.0274
▁goethe	-11.0275
▁street	-11.0275
▁sahipleri	-11.0276
▁önerilen	-11.0276
▁hareketler	-11.0276
laştı	-11.0276
▁zıt	-11.0277
▁tutumu	-11.0278
▁yayınlanmıştır	-11.0279
▁tutulan	-11.028
homo	-11.0287
ón	-11.0288
▁çevirdi	-11.0288
abi	-11.029
▁akka	-11.0292
▁ark	-11.0295
▁hipotezi	-11.0297
ala	-11.0297
▁harca	-11.03
▁yolda	-11.03
▁wyatt	-11.0301
▁alfred	-11.0301
▁modu	-11.0305
▁önemlisi	-11.0306
▁detaylı	-11.0306
▁nakliye	-11.0306
▁tanrıça	-11.0308
▁vadeli	-11.0309
layacak	-11.0313
▁günah	-11.0317
▁görü	-11.0317
pha	-11.0317
▁düşmanları	-11.0318
▁uçuşu	-11.0322
ial	-11.0325
yapı	-11.0325
laştırılması	-11.0326
▁hitit	-11.0329
▁göreceli	-11.0331
▁orkestra	-11.0331
▁üyelerinden	-11.0332
▁oyuncunun	-11.0337
▁kurarak	-11.0339
atlar	-11.0343
bc	-11.0345
▁tünel	-11.0346
king	-11.0348
▁ekseni	-11.0348
▁hukuki	-11.0351
▁platin	-11.0355
gos	-11.0356
▁batarya	-11.0359
▁platformu	-11.0359
▁kalmaya	-11.0361
▁vermişti	-11.0362
▁alış	-11.0366
▁1989'	-11.0366
▁cemaati	-11.0367
▁geçirdiler	-11.0369
▁hipotez	-11.0371
▁ölmesi	-11.0371
▁çıkmasına	-11.0372
tiv	-11.0373
▁burun	-11.0374
▁kullanıl	-11.0375
▁teması	-11.0379
▁ivme	-11.038
^	-11.0381
▁massachusetts	-11.0381
▁patent	-11.0383
▁düzenlenmesi	-11.0383
"”	-11.0386
▁kendisiyle	-11.0386
▁eyaletler	-11.0387
▁görüntüleri	-11.0387
geliştirilmiştir	-11.0389
layabilir	-11.0391
▁pompa	-11.0392
▁altay	-11.0394
deniz	-11.0394
▁düzenlemeler	-11.0399
heim	-11.0405
▁die	-11.0408
▁erzincan	-11.0408
▁solunum	-11.0408
▁aleksios	-11.0408
out	-11.0409
▁harfi	-11.0409
▁geçirerek	-11.041
▁teorisini	-11.0411
▁hamile	-11.0414
▁kasabası	-11.0415
▁hastaların	-11.0416
▁başlı	-11.0416
▁stok	-11.0421
▁wo	-11.0421
pol	-11.0424
▁app	-11.0425
ımı	-11.0428
▁sevgilisi	-11.0431
▁problemleri	-11.0431
▁yavru	-11.0433
▁tayf	-11.0433
▁menderes	-11.0435
▁cezayir	-11.0435
leyebilir	-11.0439
▁katkısı	-11.0439
▁pen	-11.044
ette	-11.0442
▁saltanatı	-11.0444
-8	-11.0444
sâ	-11.0447
▁patlaması	-11.0447
ıl	-11.045
▁araştırmacı	-11.0452
▁sığ	-11.0452
gı	-11.0452
▁zordur	-11.0456
▁organları	-11.0456
▁taban	-11.046
▁cumhuriyetçi	-11.0461
▁(12	-11.0461
▁oxford	-11.0462
▁uygur	-11.0464
▁kalmak	-11.0465
▁arnavut	-11.0466
aka	-11.0468
alı	-11.0468
▁harici	-11.0479
▁motorlar	-11.048
vu	-11.0484
▁billboard	-11.0485
▁stratejisi	-11.0486
▁prince	-11.0489
▁besleme	-11.0489
с	-11.0489
▁bülent	-11.0489
▁âşık	-11.0489
▁çarpma	-11.0489
▁tahsis	-11.0489
▁domuz	-11.0491
▁hedefleri	-11.0491
yn	-11.0493
▁owens	-11.0493
▁kaçak	-11.0494
matik	-11.05
▁rivayet	-11.05
ştır	-11.0501
▁yemen	-11.0501
yel	-11.0501
non	-11.0502
ence	-11.0502
▁günleri	-11.0502
▁uğraş	-11.0503
▁emisyon	-11.0503
▁tüketim	-11.0504
▁servet	-11.0508
▁niteliği	-11.0508
▁ziya	-11.051
rea	-11.0511
▁1967	-11.0512
▁1994'	-11.0515
▁sözcüğü	-11.0515
▁(5	-11.0515
▁muamele	-11.0517
▁aydınlatma	-11.0517
▁port	-11.0518
pınar	-11.052
tle	-11.0521
melidir	-11.0521
▁takımını	-11.0522
▁oluşmuş	-11.0523
▁yakaladı	-11.0523
lamaktadır	-11.0523
▁kondansatör	-11.0524
▁atma	-11.0525
onlar	-11.0525
▁doktora	-11.0526
▁çekimleri	-11.0527
▁sorumluluk	-11.0529
dal	-11.0529
▁kazak	-11.0532
▁had	-11.0534
kir	-11.0535
▁ps	-11.0536
▁yaşta	-11.0536
▁tarafta	-11.0538
▁kâ	-11.0539
aşk	-11.0539
▁kurmuş	-11.054
▁yaban	-11.054
▁çubuk	-11.0544
▁milyonlarca	-11.0544
▁lenf	-11.0544
dük	-11.0545
▁helen	-11.0547
▁anılır	-11.0547
▁kaydedildi	-11.055
▁geliyor	-11.0554
▁mülteci	-11.0554
▁wil	-11.0556
tia	-11.0558
▁emriyle	-11.0558
▁devlete	-11.0559
▁koru	-11.056
▁bryan	-11.0563
▁bileşenleri	-11.0564
▁katılmaya	-11.0568
ich	-11.057
▁ağabeyi	-11.0571
▁rachel	-11.0571
▁oluş	-11.0575
▁sub	-11.0575
▁izole	-11.0577
fri	-11.0578
▁zorundadır	-11.0578
▁aralığında	-11.058
▁erişimi	-11.0582
▁ikmal	-11.0583
▁kadınlara	-11.0584
rolling	-11.0585
▁maaş	-11.0587
▁dostu	-11.0589
▁satışları	-11.059
usa	-11.059
▁kanunları	-11.0592
▁unsur	-11.0594
▁yükselişi	-11.0594
▁1969	-11.0594
▁esnek	-11.0595
▁bulunmakta	-11.0597
▁takımlar	-11.0597
▁nietzsche	-11.0598
▁twitter	-11.0599
hm	-11.0599
▁adamın	-11.0602
▁benze	-11.0604
▁birincisi	-11.0607
▁girmek	-11.0609
400	-11.0609
del	-11.061
▁otur	-11.061
▁düşünceleri	-11.0611
dom	-11.0612
▁elektronlar	-11.0617
mıyordu	-11.0617
▁malzemesi	-11.0619
▁tarikat	-11.062
▁mülk	-11.0621
▁incelenmesi	-11.0623
▁1944'	-11.0624
▁onlarla	-11.0624
boy	-11.0624
▁bulunuyor	-11.0625
skoç	-11.0625
▁sever	-11.0627
modern	-11.0628
▁kabilesi	-11.0628
▁kesiminde	-11.0629
▁bağı	-11.063
miyordu	-11.0631
nci	-11.0632
born	-11.0634
▁metni	-11.0635
▁etkilerini	-11.0638
▁aktivite	-11.0645
▁alfabesi	-11.0645
▁kulüpler	-11.0647
rom	-11.0647
▁arma	-11.0647
▁kölelik	-11.0649
▁sefere	-11.065
▁volkan	-11.0653
▁eleştirel	-11.0653
▁fermi	-11.0654
▁mehdi	-11.0654
▁yürütülen	-11.0656
▁operasyonlar	-11.066
▁hizmete	-11.0662
▁safevi	-11.0663
▁kaynaklara	-11.0664
▁gelişmesi	-11.0668
▁vatan	-11.0668
▁mensupları	-11.0668
▁hip	-11.067
▁ayağı	-11.0672
▁örgütün	-11.0672
▁elli	-11.0673
▁müttefikler	-11.0674
▁cesedi	-11.0674
▁öngörü	-11.0678
çü	-11.0681
ırken	-11.0681
▁konsül	-11.0681
▁duruşma	-11.0682
▁verilmektedir	-11.0685
▁alev	-11.0686
▁emil	-11.0686
▁görüşünü	-11.0686
3)	-11.0687
▁işık	-11.0689
masıyla	-11.0689
▁çalışmalara	-11.069
▁mevzi	-11.069
▁düzeltme	-11.0693
▁öneme	-11.0695
▁çekirdeği	-11.0698
▁1939'	-11.07
▁bıraktığı	-11.0701
▁konumunu	-11.0703
hersek	-11.0707
▁komutası	-11.0708
ι	-11.0709
▁cantrell	-11.0709
▁miz	-11.071
▁fonksiyon	-11.0712
▁etkisinin	-11.0712
▁reis	-11.0715
ance	-11.0717
▁hayvanları	-11.072
gaz	-11.0721
▁görevlisi	-11.0723
▁dönüşür	-11.0724
▁evli	-11.0727
▁cins	-11.073
▁çöküşü	-11.0731
▁pet	-11.0732
zy	-11.0732
ât	-11.0733
▁amaçları	-11.0733
▁reddedildi	-11.0735
▁delik	-11.0735
▁kâr	-11.0738
bul	-11.074
kine	-11.0742
▁prensibi	-11.0742
▁bağları	-11.0744
uğu	-11.0744
▁kentte	-11.0747
▁bölme	-11.0747
▁takımıyla	-11.0748
▁budizm	-11.0748
▁mono	-11.075
▁gelişmiştir	-11.075
▁inanma	-11.0752
▁sek	-11.0752
▁balta	-11.0754
▁gözleri	-11.0755
▁dalı	-11.0759
▁konfederasyon	-11.0762
tul	-11.0763
▁çeşitlilik	-11.0765
-13	-11.0766
▁seçilir	-11.0767
▁bekleme	-11.0768
▁bombası	-11.0769
▁karakterize	-11.0769
▁kalarak	-11.0771
▁duyan	-11.0772
▁kabaca	-11.0776
▁dünyası	-11.0777
▁adalar	-11.0778
▁fazladır	-11.0778
raf	-11.0778
▁kanıtı	-11.0779
▁yaşı	-11.078
▁hacim	-11.0781
▁nüfusa	-11.0782
▁mülkiyet	-11.0783
fra	-11.079
▁öğretmeni	-11.0791
▁ömür	-11.0792
yaklaşık	-11.0792
▁kuzeni	-11.0793
▁koleksiyon	-11.0793
▁ortaçağ	-11.0794
▁atar	-11.0795
▁1963	-11.0795
▁pes	-11.0797
hum	-11.0798
▁ateşli	-11.0798
▁kişilere	-11.0798
lıktan	-11.0801
▁duman	-11.0807
▁aran	-11.0808
▁rıza	-11.081
▁kadrosuna	-11.081
▁süs	-11.0811
▁foton	-11.0812
▁messi	-11.0812
form	-11.0813
zel	-11.0816
800	-11.0818
kuzey	-11.082
▁bes	-11.082
▁ilahi	-11.0822
▁keşfetti	-11.0824
▁dairesel	-11.0825
▁hans	-11.0825
▁birbiriyle	-11.0826
▁39	-11.0827
▁katılımcılar	-11.0828
▁stadyum	-11.0831
▁kullanılmış	-11.0833
▁tahttan	-11.0834
düğü	-11.084
▁fizikçi	-11.0842
▁nasır	-11.0843
▁lazer	-11.0843
cast	-11.0847
▁suçladı	-11.0848
▁ecevit	-11.0848
▁tayland	-11.0849
lerce	-11.085
▁görünmektedir	-11.085
▁marie	-11.0852
▁roger	-11.0852
▁irade	-11.0854
▁jeolojik	-11.0855
è	-11.086
▁nec	-11.0861
ath	-11.0865
▁anton	-11.0865
▁sınırlarını	-11.0866
▁kavramlar	-11.0867
▁hayır	-11.0868
▁kuralı	-11.0868
tarak	-11.0869
▁tersi	-11.0869
▁içinden	-11.087
▁bilen	-11.0871
▁tarihini	-11.0875
▁1971	-11.0877
▁baltık	-11.0877
▁sürülmüştür	-11.0877
tru	-11.0878
▁sürücü	-11.0879
▁bölgelerine	-11.0881
▁istemiştir	-11.0881
▁olduğunun	-11.0882
rdi	-11.0883
▁jovi	-11.0885
▁bilin	-11.0885
lıkları	-11.0886
▁sendika	-11.0887
uş	-11.0887
mızı	-11.0888
▁karşılaşmada	-11.0888
▁yazıları	-11.0889
▁turnesi	-11.0891
▁tecrübe	-11.0891
▁bayan	-11.0892
▁marksizm	-11.0893
▁yenilgisi	-11.0897
gül	-11.09
▁yansıma	-11.09
yıp	-11.09
enko	-11.0901
gur	-11.0901
▁azalması	-11.0902
ε	-11.0905
▁hiung	-11.0905
nova	-11.0905
▁41	-11.0907
▁doğrulama	-11.0908
▁air	-11.0909
rid	-11.0909
▁lejyon	-11.0909
▁deneyimi	-11.0911
▁ismiyle	-11.0911
aq	-11.0919
▁malzemeleri	-11.0919
▁bakteri	-11.0919
ful	-11.092
▁kuzeyindeki	-11.0922
▁çeşidi	-11.0922
▁kaynakların	-11.0924
▁tarafın	-11.0924
▁albüme	-11.0925
▁karşılandı	-11.0926
lla	-11.0931
▁blue	-11.0932
▁ilerlemesi	-11.0933
▁divan	-11.0933
▁malatya	-11.0934
▁anderson	-11.0934
▁vakti	-11.0935
▁koruyan	-11.0935
▁pazarı	-11.0935
▁derleme	-11.0936
paşa	-11.0937
abı	-11.0937
luğun	-11.0939
▁1987'	-11.0941
▁gemilerin	-11.0941
▁zorladı	-11.0943
▁jet	-11.0944
▁ortaklık	-11.0949
▁sanatsal	-11.0949
▁uzatma	-11.0952
▁fetih	-11.0953
▁akımın	-11.0953
raz	-11.0954
▁özelliklere	-11.0957
▁almanyası	-11.096
▁behzat	-11.0962
▁tasfiye	-11.0962
▁canavar	-11.0962
▁kaldırdı	-11.0962
▁alışveriş	-11.0963
▁atama	-11.0964
▁kararları	-11.0965
glo	-11.0966
▁sınırlar	-11.0967
▁2"	-11.0968
▁taraflı	-11.0968
▁uzaktan	-11.097
▁mr	-11.0971
▁ölçek	-11.0975
▁başlık	-11.0975
▁dizide	-11.0977
▁gör	-11.0979
▁hayranları	-11.098
müz	-11.0983
▁yüce	-11.0984
laştırıldığında	-11.0988
▁temsilci	-11.0989
▁tarzında	-11.099
▁kazanılan	-11.0991
▁toprakların	-11.0991
sat	-11.0991
▁olurdu	-11.0992
▁listede	-11.0995
fon	-11.0996
▁1923	-11.0996
ig	-11.0997
▁kürk	-11.0998
▁planda	-11.1005
▁şifreleme	-11.1008
▁yaparlar	-11.1013
▁allen	-11.1013
▁koleji	-11.1014
▁anlatım	-11.1017
▁charlotte	-11.1019
▁gordon	-11.1019
▁helyum	-11.102
▁rumble	-11.102
▁tutuldu	-11.102
▁mermer	-11.1021
irken	-11.1022
▁bahçesi	-11.1024
▁1914	-11.1024
mont	-11.1025
▁mezhebi	-11.1025
oka	-11.1025
▁çekilmiş	-11.1025
uç	-11.1026
kop	-11.1028
▁artmıştır	-11.1028
rd	-11.1029
ruh	-11.1029
▁hücresi	-11.1031
▁öğle	-11.1031
yat	-11.1031
▁stres	-11.1032
▁sahiptirler	-11.1032
▁1993'	-11.1033
niş	-11.1036
ming	-11.1038
▁saldırıda	-11.104
▁bitir	-11.1043
▁madison	-11.1047
▁esnada	-11.1048
▁nerede	-11.1049
▁bakımdan	-11.1051
▁kolon	-11.1052
▁sansür	-11.1053
▁gençler	-11.1055
▁toplulukları	-11.1056
▁sendromu	-11.1057
▁bozukluğu	-11.106
▁üretiminde	-11.1062
uyordu	-11.1063
▁performansını	-11.1064
▁foto	-11.1065
war	-11.1067
▁kısıt	-11.1071
ous	-11.1072
ğinde	-11.1072
rh	-11.1073
vol	-11.1074
▁katmanı	-11.1075
▁balıkesir	-11.1076
λ	-11.1076
▁gücün	-11.1077
▁özelliğini	-11.1078
▁%8	-11.1079
▁çakır	-11.108
▁cep	-11.1083
▁duyuru	-11.1084
▁çatışmaya	-11.1086
rc	-11.1087
lly	-11.1088
lerleyen	-11.1088
▁1918'	-11.1091
▁katılımı	-11.1091
▁sürdüğü	-11.1094
▁önerisi	-11.1094
▁kast	-11.1094
▁sözde	-11.1097
▁vampir	-11.1097
▁fiyatı	-11.1098
▁temelinde	-11.1103
▁oluşturulmuştur	-11.1106
▁protokol	-11.1106
▁araçların	-11.1107
dris	-11.1108
▁başlayıp	-11.1108
▁kaliteli	-11.1108
▁kuyruklu	-11.1108
amayacak	-11.1109
▁demektir	-11.1109
▁yakası	-11.1112
▁sistemlerinin	-11.1113
türkçe	-11.1115
▁çeşitliliği	-11.1115
▁faaliyetlerini	-11.1115
gm	-11.1115
▁görevler	-11.1117
▁koloniler	-11.1118
▁atadı	-11.1119
▁bağlantıları	-11.112
▁başaran	-11.112
▁sasani	-11.1123
ag	-11.1125
▁çıkarır	-11.1125
▁toplanması	-11.1129
▁karşılaştığı	-11.1129
▁kaybeder	-11.1133
lıklar	-11.1133
▁vasıtasıyla	-11.1135
▁oynar	-11.1135
▁programının	-11.1142
▁sahnede	-11.1145
▁hiper	-11.1145
▁bilge	-11.1147
▁sakatlık	-11.1149
▁yatay	-11.1149
▁çal	-11.115
▁övgü	-11.115
dığında	-11.1152
ow	-11.1154
▁yolla	-11.1155
▁maçlarda	-11.1157
▁ahlaki	-11.1157
▁haberler	-11.1161
▁aleksandr	-11.1161
▁emrini	-11.1161
liyordu	-11.1161
ić	-11.1162
▁taşıdı	-11.1163
▁denizli	-11.1165
▁profesörü	-11.1166
▁çıkaran	-11.1167
nat	-11.117
▁doz	-11.1171
▁1921	-11.1171
▁konumuna	-11.1172
▁tutulma	-11.1174
▁kullanımının	-11.1174
halk	-11.1177
▁formül	-11.1177
-35	-11.1179
▁maçlarında	-11.1179
▁yas	-11.1183
▁çalı	-11.1184
▁seçimler	-11.1186
▁geçirmiş	-11.1188
▁kapan	-11.1192
▁minimum	-11.1192
▁vakit	-11.1192
▁francisco	-11.1193
▁yöneticileri	-11.1194
üstü	-11.1194
▁(20	-11.1195
▁karakterini	-11.1195
▁konumda	-11.1195
▁ekstra	-11.1196
▁sentez	-11.1198
meli	-11.1199
▁takımları	-11.1199
▁tavan	-11.12
▁üretiminin	-11.1202
▁phil	-11.1205
▁şehirdeki	-11.1205
▁ediliyor	-11.1206
▁ulaşması	-11.1208
roz	-11.1214
▁tüp	-11.1219
▁beklenmedik	-11.1221
▁yönetimini	-11.1222
▁akışkan	-11.1224
▁tatmin	-11.1224
▁papaz	-11.1225
▁aires	-11.1225
▁bilginin	-11.1225
more	-11.1226
▁albümünde	-11.1226
▁kurtul	-11.1232
ırlar	-11.1233
▁gerisinde	-11.1237
▁içme	-11.1237
▁şimdiye	-11.1238
▁toplantıda	-11.1239
▁rumen	-11.1241
▁gezegenlerin	-11.1243
feld	-11.1244
▁130	-11.1244
▁anket	-11.1245
▁arşiv	-11.1247
▁tanıtıldı	-11.1249
▁rusların	-11.1249
▁etiyopya	-11.125
▁öldürülür	-11.1251
▁aleyhine	-11.1251
▁jordan	-11.1251
▁eşliğinde	-11.1251
600	-11.1252
▁satıldı	-11.1252
▁teleskop	-11.1252
▁adnan	-11.1253
▁bruce	-11.1253
christ	-11.1254
▁gibidir	-11.1254
▁sağlanan	-11.1256
▁yollarını	-11.1256
▁aralarındaki	-11.1256
▁yaşamıştır	-11.1256
▁oraya	-11.1257
▁ilkel	-11.1257
tip	-11.1259
▁bileşeni	-11.1259
▁iade	-11.1262
▁rna	-11.1262
lemesi	-11.1263
tarih	-11.1264
▁uğramış	-11.1264
▁süreçleri	-11.1264
▁«	-11.1266
emeyen	-11.1268
▁gösterge	-11.127
▁yeme	-11.127
▁tutulması	-11.127
pc	-11.127
roma	-11.1273
▁eleştirisi	-11.1273
▁kullanımına	-11.1273
▁duyarlı	-11.1276
▁ortada	-11.1277
▁devrinde	-11.1277
▁yorumu	-11.1278
▁uzanır	-11.1279
▁pirinç	-11.128
▁adolf	-11.128
▁stalingrad	-11.128
▁duvarın	-11.128
rot	-11.1281
▁azaltır	-11.1281
▁şirketlerin	-11.1281
▁uşak	-11.1281
▁geçerlidir	-11.1284
▁görevlileri	-11.1285
▁radar	-11.1286
▁hayali	-11.1287
▁kolaylaştır	-11.1287
▁kartal	-11.1291
ettin	-11.1293
şir	-11.1295
▁çıkarmıştır	-11.1296
▁çekimler	-11.1296
▁kadroya	-11.1297
▁başlamadan	-11.1299
▁algılama	-11.1299
▁kolonisi	-11.13
▁inanış	-11.1301
▁gösterim	-11.1303
▁mega	-11.1304
▁bağlantılar	-11.1306
▁faktörü	-11.1306
▁derinliği	-11.1307
▁düzlem	-11.1308
▁meditasyon	-11.1309
▁chains	-11.1309
▁covid	-11.131
▁sürecek	-11.131
liydi	-11.131
kül	-11.1312
▁amino	-11.1314
▁1964	-11.1317
tp	-11.1317
▁win	-11.1319
▁1924	-11.132
▁tarafsız	-11.1323
▁gözaltın	-11.1326
▁isminin	-11.1328
▁(6	-11.1332
▁yerleşmiş	-11.1335
▁indiril	-11.1336
▁husus	-11.1338
▁dönük	-11.1339
▁lesnar	-11.1339
▁andrew	-11.1339
▁€	-11.1339
▁aviv	-11.1341
▁ediliyordu	-11.1341
▁yanma	-11.1341
▁sığır	-11.1343
▁öldürülen	-11.1344
▁başarmıştır	-11.1347
▁yaklaşan	-11.1347
▁istek	-11.1351
mizin	-11.1351
▁militan	-11.1356
▁transferi	-11.1356
▁1979'	-11.1357
▁ortağı	-11.1357
▁onlardan	-11.1358
had	-11.136
▁doğduğu	-11.1362
▁uzmanı	-11.1363
▁zihin	-11.1366
şık	-11.1366
▁gerçeklik	-11.1368
▁selahaddin	-11.1368
▁somut	-11.1368
▁kuşattı	-11.1369
▁hanlığı	-11.137
▁tanımlanmıştır	-11.1371
hid	-11.1376
▁yapımında	-11.1378
▁takas	-11.1379
▁akraba	-11.1379
▁etkiledi	-11.1379
hor	-11.138
▁1959	-11.1381
▁polonyalı	-11.1385
▁üretici	-11.1386
▁kayıtlar	-11.1386
▁personeli	-11.1387
▁anlattı	-11.1389
▁aşamada	-11.1391
▁out	-11.1391
▁cinsi	-11.1392
▁yaka	-11.1393
▁normalde	-11.1393
▁belirttiği	-11.1394
hak	-11.1396
yâ	-11.1396
▁kullanırlar	-11.1396
eş	-11.1397
▁asma	-11.1397
▁fırat	-11.1398
▁kul	-11.1398
lenmeye	-11.1399
▁erdem	-11.1401
▁çıkmak	-11.1401
itler	-11.1403
▁yönetmeni	-11.1403
▁fakülte	-11.1403
▁eskişehir	-11.1404
what	-11.1405
▁seti	-11.1405
▁yücel	-11.1405
▁elindeki	-11.1406
▁suçu	-11.1408
▁dergisinin	-11.1409
▁rakibini	-11.141
▁çalışmalarında	-11.141
sex	-11.1412
▁mezarı	-11.1413
▁olanağı	-11.1414
▁demirel	-11.1415
▁nöro	-11.1418
▁dışarıdan	-11.1419
▁maçları	-11.142
▁tercüme	-11.1424
▁tara	-11.1424
▁şeref	-11.1426
▁ölmüş	-11.1426
▁vur	-11.1427
▁okuyucu	-11.1428
ön	-11.1428
▁mid	-11.143
▁oğlunun	-11.143
say	-11.1431
▁haberdar	-11.1431
▁haç	-11.1432
▁emiri	-11.1432
▁sivri	-11.1433
▁kendinden	-11.1434
▁sars	-11.1434
▁olgun	-11.1435
▁statüsü	-11.1435
▁manzara	-11.1435
▁inanıyordu	-11.1436
▁1956	-11.1439
▁komünizm	-11.1445
▁adaya	-11.1447
▁anlaşmazlık	-11.1449
önce	-11.1451
▁huzur	-11.1451
meden	-11.1452
▁futbolu	-11.1452
▁haklı	-11.1453
▁selçuk	-11.1453
-9	-11.1458
fir	-11.146
ğın	-11.1462
▁geçirmiştir	-11.1466
▁tarama	-11.1469
▁paralı	-11.147
▁1922	-11.1472
dh	-11.1473
▁sayılar	-11.1473
göster	-11.1474
▁kararlar	-11.1474
▁davul	-11.1479
▁grubunu	-11.148
▁koyma	-11.1481
▁aktör	-11.1482
▁profil	-11.1484
▁yaratmak	-11.1485
▁talimat	-11.1486
▁düşür	-11.1486
▁değerini	-11.1487
▁kampı	-11.1487
▁nokia	-11.1488
günümüz	-11.1488
▁başlatılan	-11.1489
▁tasarlanan	-11.149
▁böcek	-11.149
▁düşüncesi	-11.1491
▁olunca	-11.1491
▁kadını	-11.1491
▁düşün	-11.1492
▁salgını	-11.1493
▁köyleri	-11.1494
▁kuruluşları	-11.1495
▁konsept	-11.1495
kuş	-11.1498
eğer	-11.1499
kent	-11.15
▁kayıtlı	-11.1504
▁üretil	-11.1507
ullah	-11.1508
▁por	-11.1509
hav	-11.1509
▁mevsim	-11.1512
▁sağlandı	-11.1512
alt	-11.1513
▁yaprak	-11.1514
▁havada	-11.1514
chu	-11.1515
▁çalışmaların	-11.1515
▁aradan	-11.1515
▁tang	-11.1515
lığının	-11.1517
▁suretiyle	-11.1517
▁terakki	-11.1517
▁tekstil	-11.1517
▁inanılır	-11.1518
▁tavır	-11.1518
▁min	-11.1519
▁yığın	-11.1522
rick	-11.1524
▁ruhsal	-11.1525
▁nitelendirdi	-11.1526
âl	-11.1531
▁was	-11.1531
▁yağı	-11.1531
▁bru	-11.1532
▁saldırısına	-11.1533
▁ikamet	-11.1533
▁merkezî	-11.1534
▁alet	-11.1536
▁theo	-11.1539
▁ağzı	-11.154
▁içerdiği	-11.154
▁sunduğu	-11.1545
pik	-11.1546
▁gösterilebilir	-11.1548
▁kılıcı	-11.1548
▁renkler	-11.1548
▁koymuştur	-11.1548
▁daima	-11.1549
▁doğuya	-11.155
▁çevreleyen	-11.155
▁bölgesini	-11.1551
▁sürükle	-11.1552
▁motorları	-11.1553
▁temsilciler	-11.1553
▁korkusu	-11.1554
bia	-11.1555
▁yerinden	-11.1555
▁*	-11.1556
▁kademeli	-11.156
▁44	-11.156
vah	-11.1561
▁1933	-11.1561
▁öden	-11.1561
▁ithal	-11.1561
▁(14	-11.1562
▁dediği	-11.1563
▁fikirler	-11.1563
▁1936	-11.1563
▁dayanıklı	-11.1564
▁başkanlığında	-11.1566
▁unvan	-11.1567
ilme	-11.1571
tma	-11.1571
znik	-11.1571
bach	-11.1573
▁rota	-11.1573
▁belirlendi	-11.1574
▁hatır	-11.1574
▁suçlar	-11.1574
▁gittiği	-11.1576
▁köyünde	-11.1577
pet	-11.1577
▁seferler	-11.1577
▁halini	-11.1577
▁hakimiyet	-11.1577
▁otto	-11.1578
▁kaçınılmaz	-11.1579
num	-11.1581
▁sözlerini	-11.1582
▁dinlenme	-11.1587
▁kalenin	-11.1588
▁sekreter	-11.1589
lock	-11.1591
ız	-11.1591
▁gitarist	-11.1592
▁geliri	-11.1592
▁kimsenin	-11.1594
▁üretme	-11.1595
▁kaçır	-11.1598
▁bonn	-11.1598
▁cesaret	-11.16
▁flor	-11.1601
▁şeklini	-11.1601
▁1,5	-11.1602
▁havza	-11.1602
▁üyesidir	-11.1603
▁şen	-11.1603
▁güçlerin	-11.1606
▁cerrahi	-11.1608
▁değiştirmek	-11.161
▁almasını	-11.161
yılın	-11.1611
▁kurgusal	-11.1611
▁yayılmış	-11.1611
▁albümdeki	-11.1613
▁almasına	-11.1613
▁bolşevik	-11.1615
▁cemal	-11.1619
▁göstermeye	-11.1619
tâ	-11.1621
▁bakanlar	-11.1622
▁sağlanır	-11.1623
▁tesisi	-11.1625
▁üreticileri	-11.1625
work	-11.1625
▁kaptanı	-11.1628
▁projeler	-11.1628
▁zorlu	-11.1628
▁hop	-11.1628
▁hatıra	-11.1629
law	-11.1629
▁katılması	-11.163
keş	-11.1631
▁bağlılık	-11.1632
▁kav	-11.1635
▁sanatlar	-11.1635
hit	-11.1637
▁gelişti	-11.1638
▁çapraz	-11.1638
▁buenos	-11.1639
▁power	-11.1639
▁geçidi	-11.1642
mé	-11.1643
▁orduyu	-11.1645
▁bolşevikler	-11.1646
▁700	-11.1648
▁ekleme	-11.1648
▁ekolojik	-11.1649
▁kazanması	-11.165
▁kitabının	-11.1652
▁ordularının	-11.1653
▁yaratan	-11.1655
gir	-11.1655
▁görünme	-11.1655
▁eric	-11.1657
▁elçisi	-11.1661
▁cu	-11.1662
▁tabakası	-11.1662
▁sözleriyle	-11.1669
▁sirius	-11.1671
▁zorluk	-11.1672
▁korunma	-11.1672
▁atlı	-11.1673
▁garip	-11.1673
▁müdür	-11.1673
▁kaldırmak	-11.1674
▁kademe	-11.1675
lc	-11.1675
fair	-11.1675
thi	-11.1675
▁bilgiyi	-11.1678
ax	-11.1679
▁planlar	-11.1679
▁egemenlik	-11.1681
▁galya	-11.1681
án	-11.1685
▁anlaşılması	-11.1685
▁baştan	-11.1687
▁öldür	-11.1689
▁yükleme	-11.169
▁faydalı	-11.1691
▁ilaçlar	-11.1692
▁belirledi	-11.1696
idae	-11.1697
▁kabileleri	-11.1699
▁belirleyici	-11.17
▁stu	-11.1701
▁takvim	-11.1701
▁olamadı	-11.1703
▁mel	-11.1704
▁proteinler	-11.1704
▁tunç	-11.1705
▁mevcuttu	-11.1705
stre	-11.1705
bis	-11.1705
▁sıkıntı	-11.1708
▁yahudilik	-11.1709
▁noktasında	-11.1709
gra	-11.1709
▁taze	-11.171
▁sorumludur	-11.171
▁etkinliğinde	-11.171
▁yaşan	-11.1712
▁genişliği	-11.1713
▁nota	-11.1714
▁oluşması	-11.1715
ens	-11.1718
▁yayını	-11.1723
▁söylemek	-11.1724
cek	-11.1724
▁prensip	-11.1724
landığını	-11.1725
ttifakı	-11.1725
nar	-11.1726
▁büyüdü	-11.1727
▁toplamak	-11.1727
▁sürecini	-11.1728
▁pasif	-11.1729
▁pala	-11.1729
▁bilgilerin	-11.173
şte	-11.173
▁basamak	-11.1731
cak	-11.1731
▁gayri	-11.1732
▁istasyon	-11.1733
ago	-11.1734
âm	-11.1734
▁simon	-11.1736
kul	-11.1737
▁alanını	-11.1738
▁hissetti	-11.1738
▁büyüktür	-11.1739
▁yetişkinler	-11.1741
▁okulları	-11.1745
▁kopar	-11.1747
▁taraftarı	-11.1749
▁dakikalık	-11.175
▁laboratuvarı	-11.1751
▁rusça	-11.1759
arch	-11.176
▁olağan	-11.1761
▁belgrad	-11.1761
suna	-11.1762
▁hayvancılık	-11.1763
▁kısmi	-11.1763
▁zarfında	-11.1763
vaz	-11.1763
bed	-11.1763
▁1905	-11.1763
▁national	-11.1764
▁hızını	-11.1764
▁jr	-11.1766
▁heavy	-11.1768
▁nüfuz	-11.1772
”"	-11.1772
▁ettirme	-11.1773
▁yargıç	-11.1773
▁drama	-11.1774
şâ	-11.1775
▁johnson	-11.1777
▁shi	-11.1778
▁malzemelerin	-11.1783
▁edilecek	-11.1785
▁çoğunluk	-11.1785
▁anında	-11.1787
rıldı	-11.1789
▁kinetik	-11.1792
▁tutsak	-11.1792
▁taşları	-11.1793
▁kaçar	-11.1793
▁öncülük	-11.1793
▁programlar	-11.1796
▁karşılaşır	-11.1798
qua	-11.1798
gr	-11.1799
zit	-11.18
▁teklifini	-11.1803
▁besteci	-11.1804
mıyor	-11.1804
leştir	-11.1805
eğe	-11.1806
arya	-11.1807
▁karşılama	-11.1807
▁yayınlar	-11.1808
udur	-11.1809
sign	-11.181
▁yukarıdaki	-11.181
▁onayladı	-11.181
▁yapacağı	-11.1813
▁duygusu	-11.1813
▁canlandırdı	-11.1813
▁cia	-11.1814
▁„	-11.1815
▁ios	-11.1815
▁uğrattı	-11.1817
▁göçmenler	-11.1817
çak	-11.1819
era	-11.1819
günümüzde	-11.1819
▁kumaş	-11.1823
tilaf	-11.1824
▁forvet	-11.1824
▁warner	-11.1824
▁şehrini	-11.1825
▁boyları	-11.1826
▁kendiliğinden	-11.1828
▁seçil	-11.183
▁kargo	-11.183
▁türün	-11.1832
▁yönünden	-11.1832
▁kağan	-11.1833
▁ebeveyn	-11.1837
▁kazanç	-11.1838
pot	-11.1838
▁360	-11.1838
1,	-11.1839
▁tasar	-11.1839
▁ilki	-11.1839
med	-11.1841
▁kapatıldı	-11.1841
▁enlem	-11.1841
uyor	-11.1843
▁tortu	-11.1844
oto	-11.1844
▁kelimeler	-11.1846
laşır	-11.185
▁istasyonları	-11.1852
▁tutul	-11.1854
▁anlaşılmaktadır	-11.1854
▁ümit	-11.1855
▁yapılabilir	-11.1855
▁belirleyen	-11.1856
▁anısına	-11.1856
▁yakup	-11.1856
▁girip	-11.1857
▁koyduğu	-11.1859
▁gurur	-11.1863
ore	-11.1865
▁toplumda	-11.1866
▁eğit	-11.1868
ladığını	-11.1869
▁üretildi	-11.1873
▁bürosu	-11.1873
▁melik	-11.1874
▁işlevsel	-11.1875
▁hy	-11.1879
▁august	-11.188
miyor	-11.188
▁akran	-11.188
burn	-11.1881
macaristan	-11.1882
▁düşmüş	-11.1884
tmek	-11.1884
ρ	-11.1885
▁hazırlanmış	-11.1885
▁russell	-11.1885
▁vincent	-11.1885
▁kaybettiği	-11.1886
▁sürdüren	-11.1888
▁arttır	-11.1888
▁dc	-11.189
▁değerler	-11.1892
▁forması	-11.1893
▁queen	-11.1897
▁sigorta	-11.1898
▁tamamını	-11.1899
▁firma	-11.19
▁etse	-11.19
▁alındığı	-11.1905
▁lezbiyen	-11.1905
▁nedenlerle	-11.1913
▁kullanması	-11.1916
▁demiryolları	-11.1916
ulus	-11.1919
▁yargılama	-11.1921
▁süreçler	-11.1922
▁hatırlama	-11.1925
▁yavuz	-11.1926
▁kevin	-11.1926
adam	-11.1926
rim	-11.1927
▁kaleyi	-11.1927
▁resimler	-11.1929
▁taraftarları	-11.1929
▁ormanlar	-11.1932
▁kalesini	-11.1935
▁dönmek	-11.1935
▁protestolar	-11.1937
lenip	-11.1938
▁dersler	-11.1938
hey	-11.1942
gat	-11.1946
▁düşünülür	-11.1948
▁lynch	-11.1948
ttihat	-11.1948
▁bakanlık	-11.1948
▁göründü	-11.1949
▁çıktılar	-11.1951
▁geçirilen	-11.1951
▁şehit	-11.1953
▁kaybetmiştir	-11.1953
▁cennet	-11.1953
diğer	-11.1954
▁gitmiş	-11.1954
▁30.	-11.1954
▁makinesi	-11.1955
▁konseri	-11.1956
▁uy	-11.1957
aga	-11.196
▁ikisinin	-11.1961
▁benzersiz	-11.1963
▁rad	-11.1963
»	-11.1963
▁akarsu	-11.1965
çık	-11.1965
▁geçirir	-11.1967
▁benzet	-11.1968
▁mach	-11.1968
▁ozan	-11.1969
▁jeff	-11.1971
▁kurulmasına	-11.1973
mışlardı	-11.1974
▁sade	-11.1976
▁kullanıma	-11.1977
ılmıştır	-11.1978
▁etkilenme	-11.1979
▁dead	-11.1979
▁mcmahon	-11.1979
▁depresyon	-11.1979
▁sakinleri	-11.1979
▁maya	-11.1982
eder	-11.1982
ters	-11.1983
▁ziyareti	-11.1984
▁düşünen	-11.1985
▁tl	-11.1986
▁50.	-11.1987
▁mühendis	-11.1988
▁yo	-11.199
▁durumdan	-11.1992
▁açıklayan	-11.1992
▁sorular	-11.1993
qu	-11.1993
▁bakma	-11.1996
▁uyma	-11.1996
rk	-11.1996
▁kabileler	-11.1997
▁çayı	-11.1998
▁parçasıdır	-11.2
▁kullanılmak	-11.2
▁delta	-11.2008
mize	-11.2009
▁türlerinin	-11.2009
▁shield	-11.2011
▁yıkıcı	-11.2011
▁amaçlar	-11.2011
▁sünnet	-11.2011
▁time	-11.2011
eng	-11.2012
▁antonio	-11.2013
▁bulunarak	-11.2013
▁zorluklar	-11.2015
▁yapabilir	-11.2015
▁ilişkilidir	-11.2017
▁gerçekleşmesi	-11.2018
▁düzenlenmiş	-11.2018
▁yerlere	-11.2018
ces	-11.202
▁gözle	-11.2022
▁ip	-11.2023
▁tarihin	-11.2023
▁başarısını	-11.2026
▁ülkelerinin	-11.2027
▁yönden	-11.2027
genellikle	-11.2028
bö	-11.2034
dman	-11.2036
▁sanatçıların	-11.2036
▁kadrosu	-11.2041
▁şeria	-11.2042
в	-11.2042
▁hikmet	-11.2042
▁roosevelt	-11.2042
▁hakaret	-11.2042
▁obama	-11.2043
shak	-11.2045
▁sembolik	-11.2046
▁yıkıldı	-11.2047
▁caz	-11.2048
▁kazandıkları	-11.2049
▁istenen	-11.205
▁ulaşmış	-11.2053
pus	-11.2053
▁kapat	-11.2054
▁life	-11.2055
▁kuşu	-11.2058
diğinde	-11.2061
ox	-11.2064
▁evin	-11.2067
▁ateşe	-11.2069
▁satır	-11.207
zh	-11.207
▁tarihlerde	-11.2071
▁baybars	-11.2074
▁çıkmıştı	-11.2074
▁uğrayan	-11.2075
▁kaynaklarının	-11.2077
▁bombalama	-11.2077
cs	-11.2077
▁meşe	-11.2078
bank	-11.208
▁oscar	-11.208
▁polisi	-11.2081
▁kapağı	-11.2081
sindeki	-11.2084
▁kavramını	-11.2085
▁damar	-11.2088
▁aklın	-11.2088
▁şövalyeleri	-11.2093
▁gösterimi	-11.2094
ğunu	-11.2096
▁uyguladığı	-11.2096
▁bell	-11.2098
▁elemanları	-11.21
▁bölünmesi	-11.2101
▁che	-11.2102
çılar	-11.2102
▁belirtildi	-11.2102
т	-11.2106
▁tokyo	-11.2106
▁düş	-11.2107
▁işçilerin	-11.2108
laştırılmış	-11.2109
nam	-11.2109
▁fiber	-11.2111
▁hard	-11.2111
▁testleri	-11.2112
▁reformlar	-11.2112
letişim	-11.2112
▁trt	-11.2113
erken	-11.2114
loji	-11.2114
▁oluyor	-11.2115
▁görüştü	-11.2115
▁santa	-11.2116
▁belirlenmiş	-11.2118
×	-11.2121
ello	-11.2122
▁programın	-11.2122
▁borsa	-11.2123
▁bırakılması	-11.2123
▁getiril	-11.2124
tc	-11.2124
▁bilimin	-11.2127
▁görünümü	-11.2128
▁olmamasına	-11.2129
▁anlat	-11.213
▁bırakmak	-11.2131
▁media	-11.2132
▁persler	-11.2132
▁yazın	-11.2134
▁yapımcısı	-11.2136
▁firavun	-11.2138
▁lawrence	-11.2138
▁şahıs	-11.2138
▁yazıldı	-11.2142
uf	-11.2145
▁heat	-11.2146
▁balon	-11.2146
▁spin	-11.2146
▁british	-11.2147
oviç	-11.2147
▁mili	-11.2147
▁avantaj	-11.2148
▁günden	-11.2149
▁tanındı	-11.215
ase	-11.2153
▁çözmek	-11.2154
▁gold	-11.2159
▁özen	-11.216
▁yıla	-11.2162
▁şef	-11.2163
▁eserlerinde	-11.2163
▁dinleme	-11.2163
▁galeri	-11.2163
▁heart	-11.2164
▁pekin	-11.2164
▁koy	-11.2165
▁çalışmasını	-11.2166
▁toplamı	-11.2167
▁chelsea	-11.217
▁tiberius	-11.217
▁azalır	-11.217
▁ofis	-11.2173
▁kısıtlama	-11.2173
▁taşıdığı	-11.2175
▁sis	-11.2178
▁lira	-11.2181
▁korkunç	-11.2181
▁abhazya	-11.2182
▁dönemdeki	-11.2184
lanmaya	-11.2184
yip	-11.2186
▁emirleri	-11.2189
▁yönlendirme	-11.219
ilerek	-11.2194
racak	-11.2195
▁imalat	-11.2197
▁denizden	-11.2198
▁bakımı	-11.22
▁pol	-11.22
▁destekleme	-11.22
▁adriyatik	-11.2202
▁lewis	-11.2202
▁estonya	-11.2202
sb	-11.2203
ile	-11.2203
sho	-11.2205
▁tesla	-11.2208
▁tasarlanmıştır	-11.2209
▁́	-11.2214
▁tabii	-11.2214
▁çıkacak	-11.2215
kaş	-11.2215
liğinden	-11.2216
daş	-11.2217
▁dinler	-11.2218
▁çizil	-11.2218
▁verildiği	-11.222
rock	-11.222
▁kışla	-11.2221
▁sınırlama	-11.2222
▁yaratılış	-11.2225
▁eleştirmen	-11.2225
▁uzayda	-11.2227
▁kıyısı	-11.2227
▁görmeye	-11.2227
stat	-11.2228
lyas	-11.2229
▁kişidir	-11.223
="6"	-11.2234
▁eurovision	-11.2234
▁dun	-11.2234
▁arafat	-11.2235
▁şarkısının	-11.2235
▁teşebbüs	-11.2237
▁arazileri	-11.2239
▁valiliği	-11.2239
▁evrimsel	-11.224
▁anlaş	-11.2241
▁tamam	-11.2243
▁sunan	-11.2244
▁örgütlenme	-11.2245
▁etmenin	-11.2246
▁kepler	-11.2248
▁fame	-11.2248
▁böcekler	-11.225
▁kadarki	-11.2252
erler	-11.2252
▁moral	-11.2253
under	-11.2255
▁düştüğü	-11.2258
box	-11.2258
▁tahminler	-11.2259
▁seç	-11.2262
▁ayrımı	-11.2264
▁ömrü	-11.2264
▁kurmay	-11.2265
▁istikrarlı	-11.2265
ê	-11.2267
▁çağatay	-11.2267
▁youtube	-11.2267
▁saatlik	-11.2273
▁mağaza	-11.2273
▁hakkına	-11.2274
▁savcı	-11.2274
▁sorgulama	-11.2274
▁arazisi	-11.2275
▁çapta	-11.2275
▁çekmiştir	-11.2275
▁başbakanlık	-11.2276
▁savaşan	-11.228
polis	-11.228
▁başlarda	-11.2282
▁kalkış	-11.2283
▁180	-11.2283
stru	-11.2284
▁filtre	-11.2284
▁yerleşen	-11.2285
vak	-11.2285
▁hugo	-11.2287
leş	-11.2288
▁mesela	-11.2289
▁saldırıyı	-11.2291
▁char	-11.2292
ish	-11.2293
▁girmeye	-11.2294
▁karıştı	-11.2295
▁katılmış	-11.2296
bury	-11.2297
▁belir	-11.2298
▁aristoteles	-11.2299
▁cleveland	-11.2299
▁etimoloji	-11.2299
▁piyano	-11.2299
dari	-11.2299
▁wright	-11.23
▁çiftçi	-11.2303
▁motorun	-11.2304
▁your	-11.2304
▁taciz	-11.2308
▁kuşku	-11.2308
▁cemaat	-11.2308
▁bilinci	-11.2312
▁yakalandı	-11.2313
ator	-11.2313
şin	-11.2314
▁birbirlerini	-11.2314
▁okulda	-11.2315
▁cin	-11.2316
▁çalışıyordu	-11.2318
▁koşul	-11.2318
▁tarihlerinde	-11.2319
▁yıkılması	-11.2321
▁dağıldı	-11.2322
▁skor	-11.2324
illa	-11.2324
▁yurttaş	-11.2327
▁kıyafet	-11.2327
▁kökenleri	-11.2328
▁farklılıkları	-11.233
▁uzaklıkta	-11.2332
▁dilinin	-11.2335
▁şehrine	-11.2335
▁koyar	-11.2335
ato	-11.2335
ani	-11.2335
▁kavramları	-11.2336
▁gine	-11.2337
▁hamas	-11.2338
lüğünü	-11.2339
cd	-11.2339
▁azaldı	-11.234
▁çıkartma	-11.2341
▁akı	-11.2342
▁gez	-11.2342
▁kulübe	-11.2343
▁fit	-11.2344
lması	-11.2345
▁koymak	-11.2346
▁hanedanlığı	-11.2348
▁maske	-11.2351
▁series	-11.2352
▁günlerinde	-11.2353
▁kurar	-11.2353
▁düşüşü	-11.2354
▁guy	-11.2355
dt	-11.2355
▁ikiz	-11.2357
▁atak	-11.2358
▁programına	-11.2358
▁buluşma	-11.2358
▁1982'	-11.2359
▁hastalıkları	-11.236
char	-11.2361
▁sistemlerin	-11.2362
▁yönleri	-11.2362
▁torpido	-11.2364
▁şapka	-11.2364
▁bulgu	-11.2365
▁spike	-11.2367
▁özür	-11.2367
▁hekim	-11.2368
▁müttefikleri	-11.2368
dirler	-11.2368
▁tilki	-11.2369
▁deplasmanda	-11.237
▁uyku	-11.2372
▁sahili	-11.2375
▁alakalı	-11.2378
▁saati	-11.238
▁cuma	-11.2382
▁..."	-11.2383
▁bot	-11.2383
tam	-11.2383
▁olsalar	-11.2384
▁engeller	-11.2385
▁yanındaki	-11.2387
2,	-11.2387
▁gecikme	-11.2389
▁prag	-11.2389
you	-11.239
▁etmekle	-11.239
▁fransızlar	-11.2391
▁kullanılacak	-11.2395
▁muharebede	-11.2395
▁kazası	-11.2396
▁unsuru	-11.2396
▁cumhuriyetin	-11.2396
▁dubai	-11.2398
▁hücrelerin	-11.2398
▁düzenleyen	-11.2399
▁çağrısında	-11.2399
▁54	-11.24
▁juan	-11.24
▁memur	-11.2402
▁kıs	-11.2403
▁havacılık	-11.2403
▁jim	-11.2403
▁raporda	-11.2403
▁değişti	-11.2405
tun	-11.2405
▁reformu	-11.2408
▁sistemde	-11.2409
▁çiftin	-11.241
▁international	-11.2411
▁yerleştirildi	-11.2411
▁bilet	-11.2412
▁silahların	-11.2414
▁kalkan	-11.2414
▁bulunmayan	-11.2415
▁ekonomisinin	-11.2415
vel	-11.2415
▁(13	-11.2418
▁çoğunda	-11.242
▁çevirisi	-11.242
leyip	-11.2423
▁yurdu	-11.2423
▁değişmesi	-11.2426
▁bastı	-11.2427
▁sürgüne	-11.2429
▁uranyum	-11.243
▁company	-11.243
▁zayiat	-11.243
nia	-11.2431
▁randy	-11.2432
▁sürecinin	-11.2433
▁çağlar	-11.2433
▁ova	-11.2433
rab	-11.2436
smackdown	-11.2436
▁ordusuyla	-11.2436
▁1919'	-11.244
yım	-11.2442
▁vekil	-11.2442
▁sür	-11.2443
hy	-11.2447
▁niyet	-11.2448
▁öğrenim	-11.245
▁selam	-11.2452
ald	-11.2452
▁birbiri	-11.2453
▁şeyden	-11.2453
▁dolaşım	-11.2454
▁türünün	-11.2456
▁ermesi	-11.2457
▁ettiril	-11.2458
▁kılın	-11.2459
▁basileios	-11.2463
▁defalarca	-11.2463
▁alırlar	-11.2464
▁düet	-11.2464
ük	-11.2464
▁tibet	-11.2465
▁140	-11.2467
▁peş	-11.2467
▁52	-11.2472
▁medyada	-11.2473
▁makam	-11.2474
▁asır	-11.2474
▁tony	-11.2475
▁leo	-11.2476
gram	-11.2476
▁miktarlarda	-11.2478
▁yat	-11.2479
▁güncelleme	-11.2483
▁püskürme	-11.2485
▁orantılı	-11.2487
▁tanrıların	-11.2489
▁odağı	-11.2491
▁önlem	-11.2491
▁popülasyon	-11.2494
▁şebeke	-11.2494
▁kılavuz	-11.2496
▁ekvator	-11.2496
▁üvey	-11.2496
▁seattle	-11.2496
▁tayyip	-11.2496
▁hastalar	-11.2497
▁katılımcıların	-11.2498
▁harekâtın	-11.2499
▁bern	-11.2499
▁tamamlanması	-11.2499
▁kadınları	-11.2502
▁manet	-11.2502
resim	-11.2503
▁sınıflandırıl	-11.2504
▁söylen	-11.2505
▁renkleri	-11.2507
▁öncesine	-11.2508
▁kaçmak	-11.2509
▁gey	-11.2509
▁tutulur	-11.251
▁giderken	-11.2512
▁oranına	-11.2512
▁heykeli	-11.2513
▁okur	-11.2513
▁seçilme	-11.2514
▁değişimler	-11.2518
▁eserlerin	-11.2522
▁katil	-11.2522
▁üretilir	-11.2525
▁projenin	-11.2525
▁bağımlılığı	-11.2526
▁giril	-11.2526
▁markası	-11.2527
▁liv	-11.2529
▁beyoncé	-11.2529
▁belirtiler	-11.253
▁pagan	-11.2531
▁balina	-11.2531
▁mekiği	-11.2532
▁marcus	-11.2532
bağ	-11.2535
▁ji	-11.2535
▁standardı	-11.2535
▁1958	-11.2536
▁girişiminde	-11.2537
▁ekonominin	-11.2537
▁bilgiye	-11.254
▁sezonunu	-11.2544
▁şaşır	-11.2544
tropik	-11.2547
▁carlos	-11.2549
cker	-11.255
▁üretti	-11.2552
▁uygulanır	-11.2552
tius	-11.2552
▁köylüler	-11.2553
klar	-11.2553
▁temelli	-11.2554
▁63	-11.2558
▁salgı	-11.2559
▁ileride	-11.256
▁durumları	-11.2561
▁kompozisyon	-11.2563
▁diyalog	-11.2563
▁taylor	-11.2563
▁maxwell	-11.2563
▁gelgit	-11.2563
▁çevirme	-11.2564
▁cr	-11.2565
▁katkıları	-11.2566
▁hatırlat	-11.2569
amamıştır	-11.257
ux	-11.2572
▁vilayet	-11.2573
▁sr	-11.2577
▁toplanma	-11.2577
▁halkları	-11.2578
▁farkına	-11.2579
▁buçuk	-11.258
▁tamamıyla	-11.258
▁muhafızları	-11.258
▁gro	-11.2585
▁gelişimini	-11.2586
▁yıllarca	-11.2587
▁kenan	-11.2588
▁hayatın	-11.2588
film	-11.2589
düğünü	-11.2592
lüğe	-11.2593
▁seslendirme	-11.2596
▁hüsrev	-11.2596
▁samuel	-11.2596
▁işini	-11.2596
▁yelken	-11.2597
▁staley	-11.2598
▁1907	-11.2599
naz	-11.2599
pos	-11.26
alman	-11.26
▁yakıl	-11.2601
som	-11.2601
▁binaları	-11.2601
▁satılan	-11.2602
▁cephane	-11.2603
rar	-11.2603
hari	-11.2605
▁ortamında	-11.2606
▁yenilerek	-11.2606
▁dağıtımı	-11.2607
▁virüsü	-11.2609
ılıp	-11.261
-11	-11.261
▁kamuoyu	-11.2611
▁hiv	-11.2612
▁girişti	-11.2614
▁hastaneye	-11.2617
over	-11.2619
▁binaların	-11.262
▁tekne	-11.262
hel	-11.2621
▁suya	-11.2621
▁bab	-11.2621
▁manto	-11.2623
sunun	-11.2624
▁dolara	-11.2625
amayacağını	-11.2626
▁robin	-11.2626
▁trump	-11.263
▁kalmayı	-11.2631
eum	-11.2631
yap	-11.2631
▁eren	-11.2632
▁engelleme	-11.2633
▁pornografi	-11.2633
▁tablosu	-11.2633
▁rastlanır	-11.2635
▁karşılaş	-11.2635
▁destekli	-11.2635
▁olmalarına	-11.2637
sızlık	-11.2637
▁band	-11.2637
uyla	-11.264
▁sorumluluğu	-11.2641
▁fred	-11.2643
▁rhodes	-11.2645
▁geçtikten	-11.2647
▁dragon	-11.2649
stone	-11.2653
▁konuyu	-11.2653
▁46	-11.2654
▁ticaretin	-11.2654
▁yapıyor	-11.2657
▁işçiler	-11.2658
▁bros	-11.266
▁çalıştığını	-11.266
▁kışın	-11.2662
▁ölçekte	-11.2663
▁varşova	-11.2663
▁bismarck	-11.2663
▁edilip	-11.2664
sağ	-11.2664
cor	-11.2665
▁motorlu	-11.2665
▁geçirip	-11.2665
▁inç	-11.2666
▁antisemitizm	-11.2666
ett	-11.2667
700	-11.2667
▁satarak	-11.2667
▁bekir	-11.2668
▁dergisinde	-11.2668
▁başlattığı	-11.2669
▁1946	-11.2669
▁gerilla	-11.267
▁cihazları	-11.2671
▁tuttuğu	-11.2671
▁anlaştı	-11.2671
▁kısmına	-11.2672
▁matematikçi	-11.2672
ilk	-11.2673
▁grande	-11.2674
▁faiz	-11.2679
alist	-11.2679
▁belirtmek	-11.2679
kus	-11.2681
▁hukukun	-11.2689
▁çizgileri	-11.2689
▁parçacığın	-11.269
▁başladığını	-11.2692
▁adlandırma	-11.2695
pel	-11.2696
▁simpson	-11.2696
ssa	-11.2697
ł	-11.2697
π	-11.2697
▁incelemek	-11.2698
iss	-11.2698
▁kıyıları	-11.2699
▁nem	-11.2699
▁ürettiği	-11.2702
▁ödüller	-11.2703
▁1954	-11.2706
▁işlerini	-11.2706
▁uğra	-11.2707
▁bileşen	-11.2708
▁amerikalılar	-11.2709
▁dönemden	-11.271
▁aşiret	-11.2714
▁sonuca	-11.2714
▁görüşmeleri	-11.2715
▁toprağın	-11.2715
▁geçerken	-11.2715
▁gelenekleri	-11.2716
▁çarpışmalar	-11.2716
▁kaybetmiş	-11.2716
▁daimi	-11.2717
▁değiştirir	-11.2721
▁virüsler	-11.2722
▁şekillerde	-11.2725
▁rahatsızlık	-11.273
▁manevi	-11.273
hop	-11.2731
▁kastamonu	-11.2731
▁müddet	-11.2731
▁boeing	-11.2731
▁university	-11.2731
▁1988'	-11.2731
▁dramatik	-11.2732
▁odaklı	-11.2732
▁doğmuş	-11.2733
▁itaat	-11.2733
▁oturma	-11.2734
▁etik	-11.2734
▁dalgaları	-11.2735
üt	-11.2737
▁1947	-11.2737
lli	-11.2738
▁varlığına	-11.2739
ñ	-11.2739
▁antijen	-11.274
▁1942'	-11.2741
▁kadrosunda	-11.2742
▁çapı	-11.2743
▁çoğal	-11.2745
▁aydınlanma	-11.2746
▁atmış	-11.275
▁saldırır	-11.2751
▁melodi	-11.2751
▁serisinin	-11.2752
▁öncelikli	-11.2753
▁hikâyeler	-11.2754
hulk	-11.2754
▁çekilmeye	-11.2754
kab	-11.2754
hos	-11.2756
▁tesisler	-11.2756
▁taarruza	-11.2758
▁dahilinde	-11.2758
▁nemli	-11.2758
▁çocuklara	-11.2759
önü	-11.276
yıldız	-11.276
▁yayımladığı	-11.2763
~	-11.2765
▁dikdörtgen	-11.2765
double	-11.2765
▁1943'	-11.2766
▁cermen	-11.2766
▁doğmuştur	-11.2766
▁pazarlama	-11.2766
▁bilişim	-11.2768
▁yorumunu	-11.2775
stihbarat	-11.2775
▁tümör	-11.2775
▁gerileme	-11.2777
bridge	-11.2777
▁kavramının	-11.2778
▁yatakları	-11.278
▁dağılması	-11.2782
▁fotoğraflar	-11.2783
▁uv	-11.2784
▁değişmez	-11.2785
▁vermedi	-11.2786
▁sağlamaya	-11.2786
▁duvarlar	-11.2787
▁kaldığını	-11.2788
▁yetiştiril	-11.2793
▁varsayım	-11.2794
▁gala	-11.2796
▁britanyalı	-11.2798
▁vakum	-11.28
▁laik	-11.2801
bü	-11.2803
lion	-11.2803
▁mide	-11.2804
▁miting	-11.2804
▁atı	-11.2804
▁angle	-11.2805
▁konuştu	-11.2805
▁napoli	-11.2806
▁lüks	-11.281
▁çadır	-11.2811
▁4-1	-11.2811
▁eşitliği	-11.2812
▁gazeteciler	-11.2812
▁şişe	-11.2813
▁river	-11.2814
▁öldüğünü	-11.2814
▁dizisinin	-11.2814
▁maliyetleri	-11.2816
mol	-11.2817
▁bildirir	-11.2818
▁kadı	-11.2818
▁tarzda	-11.282
▁beta	-11.2821
ava	-11.2821
▁£	-11.2821
▁vilayeti	-11.2823
▁geliştirmeye	-11.2823
▁sakatlığı	-11.2824
▁alevi	-11.2824
▁dere	-11.2824
▁kuvvetin	-11.2829
▁uzaklığı	-11.2829
mızın	-11.283
▁açığı	-11.283
▁altındadır	-11.2831
▁kabartma	-11.2833
="1"	-11.2834
="3"	-11.2834
▁travma	-11.2834
▁tanınır	-11.2834
▁çekoslovakya	-11.2834
syanı	-11.2835
▁intel	-11.2835
▁tanımlamıştır	-11.2836
aff	-11.2836
▁uzmanları	-11.2837
▁çözme	-11.2837
allah	-11.2838
gus	-11.2839
▁girl	-11.2847
▁şekildedir	-11.2847
▁cadı	-11.2847
▁pla	-11.2848
▁eserlerini	-11.2854
▁maliye	-11.2855
▁kitlesi	-11.2855
▁birisidir	-11.2857
four	-11.2857
▁kurulmasını	-11.286
▁başlangıcında	-11.2864
▁direnme	-11.2866
▁1912	-11.2867
▁uruguay	-11.2868
▁değiştirerek	-11.2869
aynı	-11.2869
▁manastırı	-11.287
▁teknikler	-11.2871
▁sağlaması	-11.2871
▁aniden	-11.2871
▁üniversitenin	-11.2872
▁takımdan	-11.2873
▁long	-11.2875
▁lanet	-11.2879
▁mektubun	-11.2879
▁şunu	-11.288
▁düzenlemesi	-11.2882
▁kanalları	-11.2883
▁düzeyi	-11.2885
iyeti	-11.2885
▁keçi	-11.2886
stor	-11.2889
lıydı	-11.2892
merkez	-11.2893
▁oluşturulmuş	-11.2893
▁sayım	-11.2893
▁mad	-11.2896
▁istemesi	-11.2897
▁çalışmış	-11.29
▁ordusunda	-11.2901
▁meşgul	-11.2902
ل	-11.2902
▁mihver	-11.2902
▁jacob	-11.2902
▁idrar	-11.2903
▁çekişme	-11.2904
▁kaygı	-11.2906
▁kolaylıkla	-11.2908
9)	-11.2908
▁götürül	-11.2911
▁konumundadır	-11.2911
leyecek	-11.2912
▁etmesiyle	-11.2912
gol	-11.2912
▁protokolü	-11.2912
▁işsizlik	-11.2913
lerarası	-11.2913
▁verebilir	-11.2914
▁serdar	-11.2914
▁çevrili	-11.2915
▁game	-11.2919
▁uzaklık	-11.2921
▁ilişkiyi	-11.2922
▁kel	-11.2926
▁110	-11.293
▁öteki	-11.293
▁ufo	-11.2933
▁nesnelerin	-11.2933
▁katlı	-11.2934
▁azdır	-11.2934
nen	-11.2935
▁kre	-11.2936
▁hikâyeleri	-11.2937
▁ptolemaios	-11.2937
▁seçeneği	-11.2938
▁ayrılıp	-11.2938
▁yönetti	-11.294
ost	-11.2941
▁seçenek	-11.2941
cht	-11.2941
▁çalışmasında	-11.2941
▁izleri	-11.2943
▁otoyol	-11.2946
▁çekimi	-11.2948
▁island	-11.2948
pie	-11.295
▁ilhak	-11.2951
▁osmanlıların	-11.2951
▁görülmesi	-11.2952
▁sezonuna	-11.2954
▁oynamaya	-11.2954
▁hazırlandı	-11.2955
▁çoğunluğunu	-11.2958
▁döndüğünde	-11.2961
▁olmadığına	-11.2961
▁ekipman	-11.2963
▁kuyruk	-11.2965
put	-11.2967
▁cat	-11.2969
▁savaşında	-11.2971
▁varisi	-11.2971
▁savaştı	-11.2972
▁mühimmat	-11.2972
▁1500	-11.2972
▁geliştir	-11.2972
▁joker	-11.2973
▁oranını	-11.2974
▁bağlanır	-11.2974
▁görüşe	-11.2974
ism	-11.2974
step	-11.2976
▁aşan	-11.2976
ske	-11.2978
▁çağır	-11.2979
▁silindir	-11.298
▁yatan	-11.2981
yahudi	-11.2981
▁ayıran	-11.2984
▁sitesinde	-11.2984
▁1974'	-11.2985
▁bilinçli	-11.2987
▁balığı	-11.2987
▁dokuma	-11.2988
bos	-11.299
▁giydiği	-11.2991
▁çağrıldı	-11.2991
▁görevlerini	-11.2992
▁şeye	-11.2993
alım	-11.2994
osu	-11.2996
▁göstermiş	-11.2997
▁kurumların	-11.2998
▁şiirleri	-11.2999
▁tork	-11.3
▁tugayı	-11.3002
▁wood	-11.3002
beli	-11.3002
▁gösterileri	-11.3004
▁bölünmüş	-11.3005
▁yüzeyi	-11.3006
▁bakteriler	-11.3006
▁antrenman	-11.3006
▁ertuğrul	-11.3006
▁giovanni	-11.3006
▁şanghay	-11.3006
▁seramik	-11.3007
▁kongo	-11.3007
lme	-11.3007
▁radio	-11.3008
▁günler	-11.3008
▁bahsetti	-11.3008
▁dönmüştür	-11.3009
2008	-11.301
▁dönemindeki	-11.301
▁testler	-11.3011
▁süreliğine	-11.3014
▁topluluğun	-11.3015
▁girdiler	-11.3025
lenmişti	-11.3025
▁topraklarda	-11.3026
▁herkese	-11.3027
▁devreye	-11.3028
yama	-11.3028
rır	-11.3033
cil	-11.3035
girls	-11.3036
▁sesli	-11.3036
▁pierre	-11.3039
▁çevrim	-11.304
▁görevlendirildi	-11.3041
ebildiği	-11.3041
▁çeçen	-11.3042
▁dalgalar	-11.3046
ebildi	-11.3047
sultan	-11.3048
hugo	-11.3049
5)	-11.305
▁alımı	-11.3052
▁çeşme	-11.3052
▁simge	-11.3055
▁harun	-11.3056
stin	-11.3056
▁seviyesine	-11.3058
▁haritası	-11.3059
▁hâkimiyeti	-11.3061
▁versiyonları	-11.3066
▁haz	-11.3066
zim	-11.3067
▁şirketinin	-11.3068
▁selçuklular	-11.3069
▁niko	-11.307
▁hasılat	-11.3071
house	-11.3072
▁hektar	-11.3073
▁azı	-11.3074
▁53	-11.3075
▁gelibolu	-11.3076
▁hogwarts	-11.3076
▁önleme	-11.3077
▁%30	-11.3077
▁subayı	-11.3078
yazı	-11.3079
▁yankı	-11.308
▁kaydedilen	-11.308
▁nizam	-11.3081
▁alandaki	-11.3081
▁beraberlik	-11.3083
▁harcama	-11.3083
▁zirvesi	-11.3084
sever	-11.3084
▁kuyu	-11.3087
▁hıristiyan	-11.3087
▁engelledi	-11.3089
laştırdı	-11.309
▁kaleci	-11.309
▁ucu	-11.3091
▁jay	-11.3092
▁medrese	-11.3094
▁olanı	-11.3095
▁liderler	-11.3095
▁hattının	-11.3096
▁bazılarının	-11.3096
▁vazgeçme	-11.3097
lerek	-11.3099
▁yasaklandı	-11.3103
▁odun	-11.3105
▁çam	-11.3107
▁anten	-11.3109
▁sempati	-11.3112
▁gelmesini	-11.3112
▁filipinler	-11.3113
▁kıyılarına	-11.3114
▁çizim	-11.3115
uru	-11.3115
▁genişletme	-11.3115
▁melek	-11.3116
▁yükselmiştir	-11.3116
▁hatalı	-11.3117
▁havaya	-11.3118
▁yarısını	-11.3119
1.1	-11.312
▁oturan	-11.3121
yeceği	-11.3121
▁turnuvanın	-11.3121
▁sound	-11.3126
▁yazmaktadır	-11.3127
▁uzmanlar	-11.3128
▁yerleşimciler	-11.313
get	-11.313
eth	-11.313
soy	-11.3131
2.5	-11.3132
▁1800	-11.3132
lenecek	-11.3133
▁hadis	-11.3136
kom	-11.3138
▁yapısına	-11.3138
fat	-11.3139
▁saldırının	-11.3139
▁yün	-11.314
por	-11.3141
▁almaktaydı	-11.3141
▁koşu	-11.3143
▁astronomik	-11.3144
▁nesnenin	-11.3145
▁vakıf	-11.3146
▁karşılaşmasında	-11.3146
▁hırvat	-11.3147
▁descartes	-11.3147
▁pavlus	-11.3147
▁tiflis	-11.3147
▁stark	-11.3152
▁haberini	-11.3152
belirtilmektedir	-11.3152
▁vergiler	-11.3152
▁benzerlikler	-11.3152
▁söylenen	-11.3153
▁barışı	-11.3156
▁henri	-11.3156
▁adada	-11.3158
angel	-11.3159
▁formları	-11.3159
▁1957	-11.3163
▁dövme	-11.3164
▁yolculuğu	-11.3165
▁sanatları	-11.3165
abilirler	-11.3165
▁çıktığını	-11.3169
▁kürdistan	-11.3169
▁açıktır	-11.317
▁kh	-11.317
▁çinko	-11.3173
▁kısıtlı	-11.3175
▁müzakereler	-11.3178
our	-11.3178
şek	-11.3182
▁papirüs	-11.3182
▁favori	-11.3182
genel	-11.3182
▁helenistik	-11.3183
▁moğolistan	-11.3183
▁aids	-11.3183
▁4-2	-11.3184
▁haham	-11.3185
beck	-11.3185
▁iddialar	-11.3186
▁dünyasının	-11.3187
▁sunmaktadır	-11.3188
▁katılımıyla	-11.3191
tıp	-11.3193
▁yıllardan	-11.3195
▁michaels	-11.3195
▁franz	-11.3195
roman	-11.3197
▁üyelik	-11.3199
leştirildi	-11.3199
▁49	-11.32
cılığı	-11.3201
▁elementler	-11.3201
▁değiştirilmiş	-11.3202
▁altyapısı	-11.3203
▁imtiyaz	-11.3204
▁yakma	-11.3204
▁deneyi	-11.3208
▁talan	-11.3208
▁teker	-11.3208
▁söylem	-11.3209
▁pozisyonu	-11.321
▁büyükelçisi	-11.3213
▁harcamaları	-11.3213
kurt	-11.3216
▁fort	-11.3216
▁oluşturuyordu	-11.3219
▁mağdur	-11.3219
mark	-11.3221
ciliği	-11.3223
▁sağlayarak	-11.3223
▁fiziği	-11.3224
▁yeniçeri	-11.3224
▁durdurmak	-11.3225
inus	-11.3228
▁damla	-11.323
▁kapattı	-11.323
gro	-11.3232
▁savunmak	-11.3233
▁gazetesinde	-11.3234
açık	-11.3234
▁görevde	-11.3236
lilerin	-11.3237
▁fikirlerini	-11.324
▁1955	-11.3242
▁almanların	-11.3242
▁olabilirler	-11.3245
▁sezona	-11.3246
▁yarısından	-11.3248
bazı	-11.3249
sko	-11.3251
▁çabuk	-11.3254
▁kolombiya	-11.3254
iği	-11.3255
▁avantajı	-11.3255
▁gelmeye	-11.3258
pal	-11.3265
▁geçtiler	-11.3266
▁bağlam	-11.3266
▁geliş	-11.3267
▁döv	-11.3268
amayacağı	-11.3269
▁tanıtımı	-11.3269
▁açıklamaya	-11.3269
▁adli	-11.327
olo	-11.3273
phe	-11.3273
▁kulüpleri	-11.3277
▁evliliği	-11.3279
▁sayısına	-11.3279
▁akan	-11.328
win	-11.328
▁yayınlama	-11.3281
▁vatandaşları	-11.3285
▁köleler	-11.3286
şma	-11.3287
▁uygarlığı	-11.3288
▁manuel	-11.3291
▁getirerek	-11.3291
▁etkileyici	-11.3293
▁ortalarına	-11.3293
▁ithalat	-11.3294
lamaya	-11.3295
▁edildiğinde	-11.3295
▁sınırına	-11.3296
dıklarını	-11.3296
▁gerektiğine	-11.3297
lov	-11.33
▁bildiği	-11.3301
▁mev	-11.3301
▁sorunun	-11.3305
▁yapıldığını	-11.3306
▁ron	-11.3306
▁güneyindeki	-11.3309
▁işletmeler	-11.3313
jin	-11.3314
▁seçer	-11.3318
sir	-11.3319
shin	-11.3323
▁esperanto	-11.3326
▁ihtiyat	-11.3326
▁saldırma	-11.3328
▁dönemleri	-11.3329
▁rap	-11.333
▁kapatılması	-11.3331
▁erozyon	-11.3332
▁ülkesinde	-11.3332
▁kitlesel	-11.3332
▁türkistan	-11.3332
▁sahnesi	-11.3334
nka	-11.3335
▁bağımsızlığı	-11.3335
▁atlas	-11.3337
▁bla	-11.3337
▁önderliğindeki	-11.3338
▁şarkılarını	-11.3338
▁barındır	-11.3341
çılık	-11.3342
▁sebze	-11.3342
▁edecektir	-11.3342
him	-11.3344
▁elit	-11.3346
▁seviyeleri	-11.3347
▁yapısının	-11.3352
kadın	-11.3352
▁1983'	-11.3356
▁getirmesi	-11.3356
▁pel	-11.3358
▁stefan	-11.336
▁alüminyum	-11.3362
▁kontrolüne	-11.3362
▁sincan	-11.3363
▁planlı	-11.3364
▁inceleyen	-11.3364
çö	-11.3365
▁yaşanmıştır	-11.3365
ug	-11.3366
▁tanrılar	-11.3368
▁röportajında	-11.3368
▁dilde	-11.3369
▁chart	-11.337
▁ülkelerine	-11.3376
▁‘’	-11.3377
▁nitelendiril	-11.3377
via	-11.3377
öp	-11.3378
▁toprağı	-11.3378
▁alacağı	-11.338
râ	-11.3382
▁gruplara	-11.3383
▁kullanıcının	-11.3384
▁tro	-11.3384
▁alamadı	-11.3384
τ	-11.3385
▁kang	-11.3386
lüğün	-11.3388
▁bilgisayarlar	-11.3389
teydi	-11.3392
▁emirliği	-11.3394
▁düşünceler	-11.3395
love	-11.3395
▁aktarma	-11.3397
▁götürdü	-11.3397
ī	-11.3398
▁fıkra	-11.3398
▁frankfurt	-11.3398
fan	-11.3398
▁acemi	-11.3399
▁modelleme	-11.3399
▁kararsız	-11.34
▁doğruladı	-11.34
▁ölümsüz	-11.3401
▁anlaşılır	-11.3401
▁qua	-11.3402
▁şampiyona	-11.3402
▁döküm	-11.3405
elle	-11.3407
▁ilgilenen	-11.3407
ngilizlerin	-11.341
▁elementlerin	-11.3411
▁galibiyeti	-11.3412
statistik	-11.3413
nşaat	-11.3415
▁manga	-11.3415
▁fonu	-11.3416
▁kahramanı	-11.3416
ellerine	-11.3417
kha	-11.3417
▁imparatorun	-11.3418
▁nick	-11.3422
▁ailelerin	-11.3423
▁birikimi	-11.3425
▁çene	-11.3427
pazar	-11.3427
labilir	-11.3427
▁hissi	-11.3429
▁maçının	-11.3431
mec	-11.3433
light	-11.3433
▁kağıt	-11.3434
▁jerry	-11.3434
▁polarizasyon	-11.3434
▁kavuştu	-11.3435
▁tarihçisi	-11.3436
etler	-11.3436
▁petrus	-11.3436
▁kapitalist	-11.3437
▁geliştirdiği	-11.3437
▁geçirmeye	-11.3438
▁yolunun	-11.3438
▁gerçekleşme	-11.3439
▁edinme	-11.344
▁surları	-11.3441
▁emirler	-11.3442
▁özne	-11.3442
▁çalışmalarda	-11.3443
▁partilerin	-11.3446
▁yerlerinde	-11.3447
▁xi	-11.3447
larsa	-11.3447
▁alabilir	-11.3449
teri	-11.345
▁şaka	-11.3455
▁önemsiz	-11.3455
▁ili	-11.3459
mparatorluğun	-11.3461
▁kiev	-11.3461
▁zan	-11.3463
pri	-11.3463
▁vo	-11.3463
▁wayne	-11.3464
▁nice	-11.3464
▁aileler	-11.3467
▁france	-11.3468
leştirmek	-11.3468
40'	-11.3468
▁leibniz	-11.3471
▁sohbet	-11.3471
▁tebriz	-11.3471
▁süreçlerin	-11.3472
▁ömürlü	-11.3472
makla	-11.3473
gali	-11.3473
▁konsantrasyon	-11.3475
▁şöyledir	-11.3476
▁işlemci	-11.3477
▁tahtına	-11.3478
▁konumunda	-11.3479
she	-11.3479
▁cehennem	-11.3479
▁veriyor	-11.348
▁sınıfının	-11.3482
▁olun	-11.3482
pre	-11.3486
▁kompleksi	-11.3487
▁who	-11.3488
▁oluşturacak	-11.3488
▁kemerlerini	-11.3488
▁yazarların	-11.3489
▁birliğin	-11.3489
▁ülkelerinden	-11.3491
▁karşılaşan	-11.3492
▁gruplarının	-11.3494
▁ideolojik	-11.3494
▁barışçıl	-11.3496
▁görünüyor	-11.3497
▁ötesine	-11.3498
▁ipek	-11.3501
şimdi	-11.3501
▁fazlasını	-11.3501
▁road	-11.3504
right	-11.3504
▁sinagog	-11.3504
▁bölümlerinde	-11.3505
▁enstrüman	-11.3507
▁semerkant	-11.3507
▁verilerin	-11.3508
▁boşanma	-11.3509
▁telif	-11.3509
▁çekil	-11.3509
▁north	-11.351
▁aksu	-11.3511
▁bunalım	-11.3511
▁yapıda	-11.3513
▁ifadeleri	-11.3514
▁nehrin	-11.3515
▁iyileştirme	-11.3516
düş	-11.3516
▁bulunmadığı	-11.3517
▁bağlamında	-11.3517
▁baskılar	-11.3517
▁seçtiği	-11.3519
ped	-11.352
▁gerçekleştiren	-11.3522
▁ilke	-11.3522
▁çağın	-11.3523
▁arkasından	-11.3523
▁oranının	-11.3523
▁başarıya	-11.3524
▁1986'	-11.3524
▁ihracatı	-11.3525
▁şeklindedir	-11.3526
▁miller	-11.3526
▁giysi	-11.3527
▁kente	-11.3527
▁olmadığından	-11.353
▁balıkçı	-11.3534
▁araziler	-11.3536
lex	-11.3536
▁nikola	-11.3537
yr	-11.3537
▁kötüye	-11.3537
▁verilmesini	-11.3538
▁verimlilik	-11.3538
▁kenarında	-11.3538
▁ailesini	-11.3539
▁darius	-11.3539
▁mesajı	-11.354
▁amir	-11.3541
şgal	-11.3541
▁berk	-11.3542
▁öğrenil	-11.3543
▁teçhizat	-11.3544
▁çömlek	-11.3544
▁kargaşa	-11.3544
▁homojen	-11.3544
▁sürdürmektedir	-11.3544
nsanların	-11.3545
▁ypg	-11.3545
altın	-11.3545
▁def	-11.3546
▁miami	-11.3546
▁çalışmanın	-11.3549
▁belirsizlik	-11.355
▁avrupalılar	-11.3553
tta	-11.3553
▁balıkçılık	-11.3554
▁görüntüsü	-11.3556
▁rica	-11.3556
pis	-11.3557
cular	-11.3557
▁misyonu	-11.3558
-25	-11.3559
▁ayın	-11.356
▁uçan	-11.3562
▁ihtiyaçları	-11.3562
▁kilisenin	-11.3563
▁great	-11.3564
▁atanan	-11.3565
▁hain	-11.3571
▁mana	-11.3571
▁yorumlama	-11.3573
gör	-11.3575
▁olsaydı	-11.3575
tory	-11.3577
▁verirler	-11.3577
yarı	-11.3578
▁simetri	-11.358
▁teşhis	-11.3581
ʿ	-11.3581
▁himmler	-11.3581
▁kuveyt	-11.3581
▁hükmü	-11.3581
▁pekiştir	-11.3581
sür	-11.3581
▁sancağı	-11.3582
▁bozkır	-11.3583
▁elmas	-11.3583
ememiştir	-11.3584
çar	-11.3584
▁dönerek	-11.3584
▁çıkarılmıştır	-11.3584
▁alfa	-11.3585
▁gitmiştir	-11.3585
▁verirken	-11.3586
▁fiilen	-11.3586
tit	-11.3587
▁dindar	-11.3589
▁görmektedir	-11.359
▁kaçın	-11.359
▁sürerek	-11.3593
$	-11.3593
▁direnişi	-11.3593
kür	-11.3594
cas	-11.3594
▁taşımak	-11.3595
▁kategorisinde	-11.3596
▁(11	-11.3597
gua	-11.3597
▁god	-11.3598
▁bang	-11.3599
hai	-11.3599
lé	-11.36
▁yayımlanması	-11.3603
▁öv	-11.3603
▁bitkilerin	-11.3603
▁kitabını	-11.3605
▁tartışmalara	-11.3606
▁destekçileri	-11.3608
*	-11.3608
▁ulaştığı	-11.3609
lamışlardır	-11.3609
▁çerçevesi	-11.361
▁kökleri	-11.3614
▁bölümüne	-11.3614
▁burnu	-11.3616
▁ettiğinde	-11.3617
ο	-11.3618
▁kasıtlı	-11.3618
▁dağınık	-11.3618
▁moon	-11.3618
▁iğne	-11.3619
uma	-11.362
▁yoksulluk	-11.362
▁kesimlerinde	-11.3621
▁kaydedilmiştir	-11.3621
▁ilişkisini	-11.3621
▁görün	-11.3623
▁çekilmiştir	-11.3624
▁kırık	-11.3625
▁lehçe	-11.3626
▁kızları	-11.3627
▁türkmenleri	-11.3628
uzun	-11.3628
▁seat	-11.3631
▁riskini	-11.3632
▁ast	-11.3634
▁51	-11.3635
▁restoran	-11.3636
▁adresi	-11.3638
▁halklar	-11.3639
▁yenileme	-11.3641
▁kesit	-11.3641
▁sahneleri	-11.3645
▁sahneler	-11.3646
▁kullanmayı	-11.3646
▁kupayı	-11.3647
▁akşamı	-11.3647
▁mezhep	-11.3647
▁naziler	-11.3648
▁homer	-11.365
▁eğitimini	-11.365
örn	-11.365
▁1953	-11.365
▁sayıdaki	-11.3652
▁yetkileri	-11.3653
▁karaciğer	-11.3655
▁ganimet	-11.3655
▁milletvekilleri	-11.3655
▁barrett	-11.3655
▁başlarlar	-11.3656
lendirdi	-11.3656
▁gayret	-11.3656
▁bütçesi	-11.3657
▁1909	-11.3658
▁birleşmesi	-11.3659
▁müttefiklerin	-11.366
▁hp	-11.3661
▁cisimlerin	-11.3663
▁imzalama	-11.3668
▁sterlin	-11.367
▁elektronların	-11.367
▁free	-11.367
▁öncelik	-11.3671
▁hece	-11.3673
▁halkına	-11.3675
▁tuzlu	-11.3675
▁madeni	-11.3676
▁gülen	-11.3677
▁luc	-11.3677
▁taşınma	-11.3678
▁pap	-11.368
▁sanki	-11.3682
▁1962	-11.3683
▁bulunmak	-11.3683
şik	-11.3687
îyye	-11.3687
▁çatışmaların	-11.3688
yaptıktan	-11.3688
▁birleşerek	-11.3689
▁parçacıkları	-11.3689
▁öyküsü	-11.3691
ر	-11.3692
▁böbrek	-11.3693
▁heteroseksüel	-11.3693
▁neptün	-11.3693
▁civarı	-11.3693
▁çoban	-11.3693
▁bernard	-11.3693
▁bırakıp	-11.3694
▁temelde	-11.3694
▁antarktika	-11.3694
▁ifadeler	-11.3694
▁devletlerinin	-11.3695
▁içerisine	-11.3695
sovyet	-11.3695
▁mhp	-11.3696
▁moore	-11.3696
▁california	-11.3697
▁yapmıştı	-11.3698
rıp	-11.3703
▁avı	-11.3708
▁bölgesinden	-11.3709
▁tekil	-11.371
▁sean	-11.371
▁enternasyonal	-11.3712
mayan	-11.3713
▁danışma	-11.3714
tec	-11.3715
pac	-11.3718
▁öngör	-11.3718
▁açılmış	-11.3719
leşmeye	-11.3721
▁sevi	-11.3722
▁meselesi	-11.3723
şî	-11.3723
▁başkanlığına	-11.3723
▁bacak	-11.3723
▁izlediği	-11.3724
▁polimer	-11.3724
güneş	-11.3728
č	-11.373
▁society	-11.373
▁vaftiz	-11.373
▁bölgelerin	-11.3731
▁aleyhinde	-11.3732
▁çocuklarının	-11.3733
▁görülmeye	-11.3735
▁uğrat	-11.3735
▁hızlandır	-11.3735
▁öğrenen	-11.3735
▁turbo	-11.3736
▁körfez	-11.3738
▁paktı	-11.3738
ever	-11.374
▁kova	-11.374
▁ayrışma	-11.374
▁yaratır	-11.3741
▁çarpan	-11.3741
thal	-11.3741
▁silahı	-11.3741
▁merak	-11.3742
▁tankı	-11.3743
▁numarada	-11.3744
▁eyaletin	-11.3744
▁bozguna	-11.3745
mesiyle	-11.3746
▁birleşti	-11.3746
tina	-11.3748
▁rejimin	-11.375
▁eşittir	-11.3751
▁adlandırdı	-11.3751
▁eserlerinin	-11.3751
▁kozmoloji	-11.3752
shu	-11.3754
▁open	-11.3757
▁yürü	-11.3757
▁malzemenin	-11.3758
▁kumanda	-11.3758
▁dök	-11.3758
▁uyguladı	-11.3758
beş	-11.3759
▁ölümüyle	-11.376
▁maçlarını	-11.3763
▁halefi	-11.3764
▁sürecine	-11.3764
sev	-11.3766
▁açılma	-11.3766
▁ferrari	-11.3768
▁karbondioksit	-11.3768
▁zulüm	-11.3768
▁nikolay	-11.3768
▁yasadışı	-11.3769
▁şeriat	-11.3769
▁ihtiyacını	-11.3769
mesinin	-11.3771
▁kendilerinin	-11.3771
▁anlatılan	-11.3771
▁keşfedildi	-11.3772
ref	-11.3777
▁fen	-11.3778
cısı	-11.3779
▁carlo	-11.3781
ûl	-11.3781
jar	-11.3782
▁geçmeye	-11.3782
▁güvenliğini	-11.3783
▁yarıçapı	-11.3784
▁sesleri	-11.3785
▁ağrısı	-11.3785
▁adamlarının	-11.3785
▁halifesi	-11.3788
▁efsanesi	-11.3788
▁oynan	-11.379
gate	-11.3792
▁artırdı	-11.3793
▁katına	-11.3793
▁zamandır	-11.3797
▁lens	-11.3797
▁gördüğünü	-11.3797
▁kaçmaya	-11.3799
▁county	-11.38
▁bulgarlar	-11.38
▁yaklaşımlar	-11.3801
gio	-11.3802
▁kapsamı	-11.3802
▁etkilendi	-11.3802
▁serisinde	-11.3802
▁fars	-11.3803
▁vatandaşların	-11.3804
▁sosyoloji	-11.3805
▁manstein	-11.3806
▁düşünerek	-11.3807
▁terfi	-11.3809
▁avlanma	-11.3809
▁asil	-11.381
▁organizasyonu	-11.3811
▁yapmasını	-11.3811
▁tabanca	-11.3812
▁konuşması	-11.3813
▁reddedil	-11.3813
▁lige	-11.3816
▁metnin	-11.3821
▁kediler	-11.3822
▁haberleri	-11.3823
▁pra	-11.3823
▁cephede	-11.3827
klor	-11.3831
▁saniyede	-11.3835
▁ekibin	-11.3835
−	-11.3835
▁hepsini	-11.3835
▁eğilimindedir	-11.3837
▁yıllara	-11.3839
▁tanınması	-11.384
▁sarhoş	-11.3842
▁1914'	-11.3843
▁ejderha	-11.3843
▁perakende	-11.3843
▁satürn	-11.3843
▁dream	-11.3845
hara	-11.3845
now	-11.3846
▁promosyon	-11.3847
amaması	-11.3848
▁miktarını	-11.385
▁planlarını	-11.385
bes	-11.3851
▁konularında	-11.3853
▁çifti	-11.3853
▁58	-11.3854
▁politikalar	-11.3854
▁derisi	-11.3857
▁kullandılar	-11.3857
▁kromozom	-11.3858
▁planını	-11.3858
hol	-11.3863
▁moleküller	-11.3865
pic	-11.3865
▁cevabı	-11.3866
biyo	-11.387
▁taksim	-11.387
▁editör	-11.3871
▁dizileri	-11.3873
izmin	-11.3873
ılacak	-11.3873
▁belirlen	-11.3874
▁konuma	-11.3874
▁oyu	-11.3874
▁1929	-11.3875
▁değişikliklere	-11.3876
▁vektörü	-11.3877
îler	-11.3878
▁tsunami	-11.3881
▁sözcüsü	-11.3881
▁mahkum	-11.3881
▁group	-11.3882
▁yönünü	-11.3884
▁yükselmesi	-11.3884
▁paylaş	-11.3885
▁ayet	-11.3885
▁parazit	-11.3886
▁parçaların	-11.3887
▁taşımacılığı	-11.3888
▁uygulamak	-11.3888
▁karın	-11.3888
zak	-11.389
ović	-11.389
laç	-11.389
▁yoldan	-11.3894
▁yetiştir	-11.3894
sid	-11.3896
▁edilmesiyle	-11.3897
▁birleşimi	-11.3897
▁ulusun	-11.3898
▁yönlendiril	-11.3899
▁gerçekleştiği	-11.3899
▁indirme	-11.3899
▁saltanat	-11.3899
▁baharat	-11.39
▁gönderir	-11.39
▁gönder	-11.3901
▁ödüllendirildi	-11.3901
▁ağları	-11.3904
▁ayrıntıları	-11.3904
▁olaylara	-11.3906
▁halkların	-11.3908
▁şarkıcının	-11.3909
baz	-11.391
▁şiirler	-11.3911
▁yollarla	-11.3911
▁girişimler	-11.3911
▁vatandaş	-11.3912
▁alanlara	-11.3912
▁halı	-11.3912
▁hayati	-11.3915
▁şerit	-11.3918
▁enstitü	-11.3919
▁titreşim	-11.3919
▁işkolu	-11.392
▁delil	-11.392
▁oynamaktadır	-11.3922
▁1985'	-11.3926
▁atomik	-11.3928
▁sonbaharında	-11.3928
▁teklisi	-11.3928
▁düşüktür	-11.393
▁song	-11.3934
▁yaşandığı	-11.3936
hri	-11.3937
lemektedir	-11.3938
▁ucunda	-11.3938
▁ormanları	-11.3939
vî	-11.3941
▁turnuvaya	-11.3942
▁trafiği	-11.3943
yim	-11.3944
▁beklen	-11.3944
▁bölümden	-11.3945
▁korur	-11.3947
▁kurtuldu	-11.3948
▁aynıdır	-11.3948
▁insanlık	-11.395
▁cris	-11.3953
▁yerleştirilmiş	-11.3956
▁bakar	-11.3956
▁sürdürmek	-11.3957
buffy	-11.3957
▁veliaht	-11.3958
semi	-11.3958
▁granit	-11.396
graf	-11.396
▁yakalanan	-11.396
▁transkripsiyon	-11.3963
▁nm	-11.3963
just	-11.3965
▁içlerinde	-11.3966
▁sonuçlarını	-11.3967
▁azaltılması	-11.3968
6)	-11.3974
▁kütleçekim	-11.3975
▁ilerlemeye	-11.3975
▁baraj	-11.3978
▁kalmasına	-11.3979
▁varan	-11.3981
▁tarzını	-11.3981
▁verimi	-11.3983
▁cer	-11.3984
▁paralar	-11.3984
ord	-11.3985
▁yerleşke	-11.3987
▁hissetme	-11.3987
elim	-11.3987
▁kıpçak	-11.3987
vice	-11.3989
▁adımlar	-11.3989
▁key	-11.399
▁toplulukların	-11.399
▁başlamak	-11.3991
▁ilkeler	-11.3994
gri	-11.3994
water	-11.3995
▁association	-11.3996
▁makyaj	-11.3996
mediği	-11.3996
▁arıza	-11.3998
▁liderliğinde	-11.3999
▁alım	-11.3999
▁köklü	-11.4
▁yaklaştı	-11.4002
▁kayaçlar	-11.4002
▁kimliğini	-11.4003
▁gitmesi	-11.4004
lular	-11.4004
▁sürmüş	-11.4005
▁gelebilir	-11.4006
▁evler	-11.4006
▁hazinesi	-11.4006
şer	-11.4007
▁kardeşinin	-11.4009
mac	-11.4009
▁onayı	-11.401
▁yönelt	-11.401
▁durdurma	-11.4011
▁anayasanın	-11.4012
koz	-11.4013
▁askere	-11.4014
▁reddeder	-11.4015
▁gerektir	-11.4015
▁macera	-11.4016
inger	-11.4017
▁egemenliğine	-11.4017
batman	-11.4017
▁seviyesinin	-11.4017
▁hocası	-11.4018
▁sevgili	-11.4018
▁tutuk	-11.402
pir	-11.4023
ğından	-11.4023
▁karıştırıl	-11.4029
sse	-11.4031
zler	-11.4032
▁bileşimi	-11.4033
▁sok	-11.4033
▁bedenin	-11.4033
▁kabuğu	-11.4033
▁yayıncı	-11.4033
▁christopher	-11.4035
▁herakleios	-11.4035
▁meryem	-11.4035
▁özelliklerine	-11.4037
▁amasya	-11.4037
▁kirliliği	-11.4038
▁genişletti	-11.4039
▁makalesinde	-11.4039
▁phone	-11.404
▁tamamlanmış	-11.4041
▁raporları	-11.4042
▁hane	-11.4042
▁sürecin	-11.4044
▁insani	-11.4045
▁söylüyor	-11.4046
▁göm	-11.4046
▁anlaşmazlıklar	-11.4047
▁göstergesi	-11.4047
▁tanımlanmış	-11.4048
ias	-11.4049
zir	-11.4053
▁onuncu	-11.4056
▁mineraller	-11.4056
▁ölçüsü	-11.4056
▁cro	-11.4058
bı	-11.4059
▁ücreti	-11.4061
▁gitmeye	-11.4062
▁40.	-11.4063
▁atıf	-11.4063
▁üyelerine	-11.4067
▁fiziğin	-11.4067
▁belirtileri	-11.4068
▁beşi	-11.4068
ort	-11.407
▁1951	-11.407
▁sonbahar	-11.4072
terek	-11.4072
▁eğitimli	-11.4072
▁rezonans	-11.4074
▁anonim	-11.4074
▁köln	-11.4074
▁london	-11.4074
▁savunmuştur	-11.4074
yük	-11.4074
▁dikkati	-11.4075
▁efsanevi	-11.4076
▁evvel	-11.4076
▁şiddeti	-11.4077
cin	-11.4077
▁bahsedilen	-11.4077
▁böl	-11.4078
▁tartışıl	-11.4078
▁german	-11.4078
▁taraflar	-11.4078
▁prototip	-11.4079
▁özelliklerinin	-11.408
▁yaralanma	-11.4088
muk	-11.4088
abilme	-11.4089
▁çıktığında	-11.4091
▁pişirme	-11.4091
▁kanunun	-11.4093
▁kaynaklanır	-11.4096
▁deve	-11.4097
▁izle	-11.4098
lab	-11.4098
▁akademisyenler	-11.4099
▁işin	-11.41
▁varsayımı	-11.41
▁evrimi	-11.41
▁yanlışlıkla	-11.4103
rılır	-11.4103
▁uğrama	-11.4104
▁hızının	-11.4104
▁uyaran	-11.4104
▁tavşan	-11.4105
▁ker	-11.4105
▁mesele	-11.4108
▁kir	-11.411
▁sıralamasında	-11.411
▁dükkân	-11.4112
▁heinrich	-11.4112
▁playstation	-11.4112
▁dublin	-11.4112
▁kennedy	-11.4112
▁mensubu	-11.4112
▁flair	-11.4112
▁ohio	-11.4113
▁saddam	-11.4113
şletme	-11.4113
▁taslak	-11.4113
▁mızrak	-11.4113
oğlan	-11.4113
▁çetin	-11.4113
▁durdurdu	-11.4113
▁başını	-11.4114
▁1937	-11.4115
▁gur	-11.4115
rag	-11.4115
▁cooper	-11.4115
▁uğur	-11.4116
▁çöp	-11.4117
▁dük	-11.4117
hin	-11.4118
▁tahkimat	-11.4119
▁celal	-11.4119
▁uzaya	-11.4119
▁uygulanabilir	-11.4119
▁tasarımları	-11.412
▁çıkarken	-11.4121
▁safha	-11.4122
▁yüzüne	-11.4122
▁soluk	-11.4124
▁iman	-11.4129
meh	-11.4129
▁isti	-11.413
anlar	-11.4131
▁ruhun	-11.4131
giz	-11.4137
▁yüzme	-11.4137
▁geçmişe	-11.4138
▁yaşamının	-11.4138
kutsal	-11.4139
çilik	-11.4141
▁ayaklanmalar	-11.4141
▁teorisine	-11.4142
▁frekansı	-11.4144
▁iyileşme	-11.4144
▁tasarruf	-11.4145
▁örgütleri	-11.4146
▁görmez	-11.4146
fik	-11.4146
şaret	-11.4146
▁yazılımı	-11.4149
▁kadınlarda	-11.415
escu	-11.4151
▁gay	-11.4151
2003	-11.4151
▁membran	-11.4152
▁ultra	-11.4152
▁taşlar	-11.4153
▁kafatası	-11.4153
▁sınıflar	-11.4155
▁1938	-11.4155
▁mg	-11.4155
iğe	-11.4156
▁kaynaklarını	-11.416
▁hareketle	-11.4161
lamaz	-11.4161
▁oluşturması	-11.4162
kai	-11.4162
▁yörüngesi	-11.4162
dam	-11.4164
▁vokalist	-11.4168
kron	-11.4169
kaz	-11.417
▁tüccarlar	-11.417
▁rio	-11.4171
▁olmamıştır	-11.4171
▁çözelti	-11.4172
▁futbolcusu	-11.4172
şbirliği	-11.4173
▁alanlarının	-11.4175
▁1933'	-11.4176
▁sk	-11.4177
▁aktar	-11.4177
▁yetiştirme	-11.4179
yavuz	-11.4179
▁kullanabilir	-11.418
spec	-11.418
▁eyyubiler	-11.4181
▁kaçırma	-11.4182
▁müttefiki	-11.4184
▁rub	-11.4184
▁şahit	-11.4185
▁burak	-11.4185
bugün	-11.4187
▁hermann	-11.4187
▁56	-11.4189
▁yeteneğini	-11.4189
▁college	-11.4191
▁numune	-11.4191
▁mecbur	-11.4191
▁columbia	-11.4191
▁partizan	-11.4191
mini	-11.4191
▁maçlar	-11.4192
▁basılan	-11.4192
▁biliniyordu	-11.4193
▁diğerine	-11.4195
▁arpa	-11.4195
▁elma	-11.4198
▁setlerle	-11.4198
▁tanklar	-11.42
sca	-11.4204
▁zar	-11.4204
▁zorlandı	-11.4205
▁1967'	-11.4205
▁tanımlandı	-11.4205
▁boşa	-11.4206
thing	-11.4207
▁reisi	-11.4207
▁açıklanan	-11.4208
▁diğerlerinin	-11.4208
▁marşı	-11.4209
750	-11.4209
▁çerkesler	-11.421
mbo	-11.4211
▁ormanlık	-11.4213
mona	-11.4215
2011	-11.4216
▁%10	-11.4217
▁aşamalı	-11.422
▁hareketine	-11.4221
▁qui	-11.4221
▁değiştirilmesi	-11.4222
▁sürdürül	-11.4225
▁enfeksiyonu	-11.4225
▁olaylardan	-11.4227
▁cole	-11.4227
▁mevsimi	-11.4228
child	-11.4229
▁shakespeare	-11.423
▁parlamenter	-11.423
▁mahsul	-11.423
▁varsayılan	-11.4233
▁ocakları	-11.4234
▁sınırında	-11.4234
▁kurması	-11.4235
▁tanıyan	-11.4235
▁görmesi	-11.4236
▁afrikalı	-11.4237
direk	-11.4239
tech	-11.4241
▁çözül	-11.4241
▁isyancılar	-11.4241
master	-11.4242
▁belgeleri	-11.4245
▁açmak	-11.4245
▁uydusu	-11.4246
masının	-11.4246
▁kaynaklardan	-11.4247
shaw	-11.4247
▁sınırlarına	-11.425
▁bulunul	-11.4254
rif	-11.4259
lmesi	-11.4259
▁hastalıkların	-11.4259
▁uyarlaması	-11.4262
▁125	-11.4262
▁dul	-11.4263
▁kuzeydeki	-11.4265
sper	-11.4265
▁yayla	-11.4266
▁generali	-11.4266
▁eşyaları	-11.4266
▁euler	-11.4267
savaş	-11.4267
▁öğretileri	-11.4267
▁francis	-11.4269
▁melo	-11.4269
▁perspektif	-11.427
▁way	-11.427
▁devasa	-11.427
▁morrison	-11.4271
▁elektrot	-11.4273
▁takipçileri	-11.4274
rou	-11.4274
▁görünce	-11.4274
▁planck	-11.4276
ordu	-11.4276
▁sonucudur	-11.4281
▁sloganı	-11.4281
törler	-11.4283
ets	-11.4284
▁barındırır	-11.4286
▁havuzu	-11.4287
▁özdeş	-11.4287
lanmasını	-11.4287
▁medeniyet	-11.4287
▁nedenlerden	-11.4288
▁1968'	-11.4289
▁kararname	-11.4289
▁öğren	-11.429
▁yüzeye	-11.429
▁canlılar	-11.4292
▁roll	-11.4294
▁arzusu	-11.4295
▁gereksinim	-11.4295
▁emma	-11.4297
▁getirilmiş	-11.4297
▁ot	-11.4301
▁mira	-11.4301
▁ustası	-11.4301
kulu	-11.4304
▁tü	-11.4304
yiz	-11.4304
▁genom	-11.4304
▁temelleri	-11.4305
▁bağlandı	-11.4305
kral	-11.4308
▁standartları	-11.4309
▁krater	-11.4309
‚	-11.4309
▁android	-11.4309
▁oktay	-11.431
▁cesur	-11.4311
▁1934	-11.4311
▁tanımlanabilir	-11.4312
▁ras	-11.4312
▁tarafların	-11.4317
▁hile	-11.4318
▁ittifakı	-11.4321
▁önündeki	-11.4321
▁düzene	-11.4322
▁verim	-11.4323
▁işlenen	-11.4323
▁tuzak	-11.4323
▁almışlardır	-11.4324
▁kant	-11.4324
▁1953'	-11.4324
▁seven	-11.4325
▁bağlama	-11.4326
▁deposu	-11.4327
▁akrabaları	-11.4327
▁rütbe	-11.4328
▁85	-11.4328
▁belgesi	-11.4329
▁cadde	-11.433
▁türkmenler	-11.4333
▁memuru	-11.4333
▁büyücü	-11.4333
▁şema	-11.4338
▁evreni	-11.4339
▁azot	-11.4339
▁sinop	-11.434
▁boşalt	-11.4341
whi	-11.4341
ensis	-11.4341
▁sony	-11.4342
▁tarihinden	-11.4343
▁gelirler	-11.4344
▁yar	-11.4344
sab	-11.4347
▁istedikleri	-11.4347
sep	-11.4347
uka	-11.4348
▁bulundular	-11.4349
▁cenevre	-11.4349
▁fotoğrafları	-11.4349
▁kelimesinin	-11.4349
▁klavye	-11.435
▁angola	-11.435
mad	-11.435
▁humus	-11.4351
▁donald	-11.4351
kut	-11.4351
▁uygulanma	-11.4352
▁bedeli	-11.4353
▁kura	-11.4354
▁anlatımı	-11.4354
▁organizmalar	-11.4355
cisi	-11.4355
▁tokat	-11.4356
▁900	-11.4357
▁rütbesi	-11.4357
▁yükseliş	-11.4358
▁viski	-11.4359
ness	-11.4361
▁ilişkilendiril	-11.4364
etik	-11.4364
▁hasat	-11.4366
▁inceledi	-11.4368
muştu	-11.4368
vul	-11.4369
▁ted	-11.437
▁modelin	-11.4371
▁öğleden	-11.4372
▁yolun	-11.4373
▁gerekirse	-11.4376
▁genişletilmiş	-11.4376
▁faaliyetlerine	-11.4377
ânî	-11.4378
arab	-11.4379
mızda	-11.438
has	-11.438
▁duyguları	-11.4381
▁makineli	-11.4381
▁dönmüş	-11.4383
▁arapların	-11.4384
▁mete	-11.4387
▁gaziantep	-11.4388
▁deneyleri	-11.4388
▁dayanışma	-11.4389
▁hibrit	-11.4389
▁yöneticiler	-11.439
▁xbox	-11.4391
▁oluştuğunu	-11.4394
hay	-11.4394
tuğ	-11.4394
▁atılmıştır	-11.4394
rius	-11.4395
▁yapılarak	-11.4395
▁kaleye	-11.4396
▁dörtlü	-11.4397
▁dark	-11.4399
aşağı	-11.4399
▁anlaşılma	-11.44
▁şeyleri	-11.44
▁yükselt	-11.4403
▁1975'	-11.4404
ign	-11.4407
▁kaynaklanmakta	-11.4407
▁omuz	-11.441
▁sesini	-11.4411
▁marcel	-11.4412
▁hamle	-11.4413
▁poz	-11.4415
lâh	-11.4415
hidro	-11.4418
▁yatağı	-11.4418
▁öldürüldüğü	-11.4418
ndedir	-11.4419
▁dalgaların	-11.4421
daresi	-11.4422
leştirdi	-11.4424
▁korumaya	-11.4426
▁kalacak	-11.4429
▁wwf	-11.4429
▁oluşmaktaydı	-11.4431
▁benimsedi	-11.4431
▁başvurdu	-11.4432
▁karasal	-11.4432
▁perry	-11.4433
▁1949	-11.4434
▁istediler	-11.4437
▁topladığı	-11.4438
▁başkanları	-11.444
▁imparatorluğu	-11.444
▁news	-11.4441
▁hristiyanlığın	-11.4442
▁tasarlandı	-11.4443
▁bağlanması	-11.4444
▁ayırdı	-11.4446
▁kazandılar	-11.4446
▁sergiler	-11.4446
sia	-11.445
▁açıklamaları	-11.445
▁gömülü	-11.4451
▁havuz	-11.4453
▁sektöründe	-11.4453
▁figürü	-11.4456
▁yemekler	-11.4456
▁kanama	-11.4457
▁10'	-11.4458
saf	-11.4459
▁sürme	-11.4461
▁öğretil	-11.4461
у	-11.4461
▁ulaştırma	-11.4463
▁bilinç	-11.4463
▁buluştu	-11.4465
▁kızlar	-11.4465
▁ülkesinin	-11.4468
▁kuark	-11.4469
▁dumbledore	-11.447
▁ayasofya	-11.447
▁benekli	-11.447
▁euroleague	-11.447
▁pontus	-11.447
▁battle	-11.447
▁babasını	-11.447
▁katılarak	-11.4473
▁yaşadığını	-11.4474
▁işleyen	-11.4479
▁62	-11.448
▁yarışmacı	-11.4481
▁şeylerin	-11.4482
▁çatışması	-11.4482
▁dre	-11.4482
▁edilmeye	-11.4483
▁limit	-11.4484
▁kaçınma	-11.4485
2004	-11.4486
▁okun	-11.4488
ure	-11.4491
▁komutanlar	-11.4491
▁arter	-11.4492
л	-11.4494
▁giyer	-11.4495
lıkla	-11.4496
rul	-11.4496
▁tapınağın	-11.4496
▁oluşmasına	-11.4498
▁kiss	-11.4499
▁suçlama	-11.4499
▁yapılandırma	-11.4502
▁delege	-11.4502
▁fay	-11.4502
leştirir	-11.4504
yeti	-11.4505
▁değerinin	-11.4505
▁sıkıntısı	-11.4506
cr	-11.4506
ayrıca	-11.4507
▁diplomat	-11.4507
-29	-11.4508
▁versiyonunu	-11.451
▁çiğ	-11.451
▁kombinasyonu	-11.451
▁toprağa	-11.451
▁trilyon	-11.451
▁tuhaf	-11.451
▁school	-11.451
▁venezuela	-11.451
▁boğaziçi	-11.451
▁varyasyon	-11.4511
▁hayalet	-11.4512
▁nazaran	-11.4512
aria	-11.4512
▁kıdemli	-11.4513
▁bankacılık	-11.4513
▁üretimine	-11.4513
oma	-11.4515
▁madencilik	-11.4515
▁kararlaştırıldı	-11.4515
▁birbirlerinden	-11.4516
▁saatler	-11.4517
▁denklemler	-11.4517
▁seçilim	-11.4517
▁bulmaya	-11.4517
▁çalışmayı	-11.4519
▁kişileri	-11.4519
▁uyarlama	-11.4522
▁çalıştılar	-11.4523
masından	-11.4523
lişki	-11.4524
▁sınırlıdır	-11.4525
▁efendisi	-11.4526
▁dj	-11.4526
▁işlediği	-11.453
jer	-11.4531
▁yaşından	-11.4533
▁yenilenebilir	-11.4536
▁hatay	-11.4536
▁birliğini	-11.4536
ars	-11.4537
▁cemiyet	-11.4537
▁eklem	-11.4538
cre	-11.4538
▁durduruldu	-11.4539
▁dilbilim	-11.454
▁vatandaşlık	-11.4543
▁kenya	-11.4544
▁1978'	-11.4544
müs	-11.4545
▁tedbir	-11.4546
▁acımasız	-11.4546
▁cihazı	-11.4546
▁tüket	-11.4547
▁ayırmak	-11.4549
▁tedbirler	-11.4549
▁kadir	-11.455
▁şaman	-11.455
▁yıldönümü	-11.4551
▁monroe	-11.4551
▁arttıkça	-11.4551
▁kaybederek	-11.4552
▁neolitik	-11.4552
▁galaksiler	-11.4554
▁metinler	-11.4556
▁değerlendirilme	-11.4556
▁beceri	-11.4558
▁tiran	-11.4559
▁şahsen	-11.4559
▁türüdür	-11.4559
bâtınî	-11.456
▁kabiliyeti	-11.4561
▁vefat	-11.4562
▁yönetil	-11.4563
▁kıtlık	-11.4563
▁lyon	-11.4564
▁philip	-11.4565
yabilir	-11.4565
▁galata	-11.4567
▁sırplar	-11.4567
▁mektuplar	-11.4568
nger	-11.457
▁bakıl	-11.4571
ington	-11.4577
izmi	-11.4579
▁çekmeye	-11.458
duk	-11.458
▁bitmesi	-11.458
▁yükselti	-11.4581
▁şahsi	-11.4583
▁putin	-11.4588
▁1946'	-11.4589
▁hâl	-11.459
▁analitik	-11.459
▁yazımı	-11.4591
▁bilimkurgu	-11.4592
▁cameron	-11.4592
▁ihtiyaçlarını	-11.4592
▁periyodik	-11.4593
▁büyüğü	-11.4593
▁vücudu	-11.4594
▁rezerv	-11.4598
▁inşaatı	-11.4598
▁çalışıyor	-11.4599
▁bitiren	-11.46
▁başarısızlıkla	-11.4602
▁oluşturmaya	-11.4603
▁işlevleri	-11.4605
▁cre	-11.4605
▁töreninde	-11.4606
▁hâli	-11.4606
▁partili	-11.4606
▁tasarladı	-11.4611
▁gerçekleştirmek	-11.4614
▁kafka	-11.4615
nom	-11.4616
▁magma	-11.4616
▁çökmesi	-11.4616
▁johann	-11.4619
grad	-11.4627
▁zamanının	-11.4627
▁dernek	-11.4629
▁çöküş	-11.4631
▁1984'	-11.4632
▁kopernik	-11.4633
δ	-11.4633
▁şaşırtıcı	-11.4633
▁dördü	-11.4633
▁iblis	-11.4633
▁erzak	-11.4633
▁ışıma	-11.4634
▁olamaz	-11.4636
▁4-0	-11.4636
▁yüzbaşı	-11.4637
▁memeliler	-11.4638
1.0	-11.4639
▁derinlik	-11.4639
gah	-11.4642
▁topar	-11.4644
▁çatışmada	-11.4645
▁iplik	-11.4645
▁borçlu	-11.4645
▁tarla	-11.4646
▁cover	-11.4647
▁odasında	-11.4647
▁dönüştür	-11.4648
▁tutuş	-11.4648
▁72	-11.4649
▁françois	-11.4649
▁programda	-11.4649
rama	-11.465
▁birliklerine	-11.4652
▁bildirim	-11.4654
▁mısırlılar	-11.4654
▁formasını	-11.4657
▁rosa	-11.4659
▁dosyaları	-11.4659
dağı	-11.4659
▁fran	-11.466
askıya	-11.466
▁ülkelerdeki	-11.4661
▁yatır	-11.4661
▁kaynaklarına	-11.4662
▁bozulması	-11.4662
▁filler	-11.4664
▁mate	-11.4666
lir	-11.4666
▁space	-11.4668
▁hatası	-11.4668
▁ostrogotlar	-11.4668
ölüm	-11.4669
▁kolonileri	-11.467
▁düzenin	-11.4671
▁terimleri	-11.4672
▁paranın	-11.4673
▁kökü	-11.4674
▁derviş	-11.4674
▁kızgın	-11.4674
▁flaş	-11.4674
▁mesafeler	-11.4674
▁antonius	-11.4674
▁haraç	-11.4675
▁çizme	-11.4676
▁görünüşe	-11.4676
oyun	-11.4677
▁etkilemiştir	-11.4678
▁koro	-11.4678
▁rolünde	-11.4679
işi	-11.4679
▁rakamı	-11.4679
▁kullanışlı	-11.4679
▁hizalama	-11.4679
▁oğlunu	-11.4681
▁eki	-11.4681
▁gandi	-11.4682
▁mason	-11.4682
▁yazmak	-11.4682
▁deneyimleri	-11.4683
▁yaşamak	-11.4684
▁opel	-11.4685
▁mesafede	-11.4686
mag	-11.4686
▁topları	-11.4688
▁kn	-11.4691
▁geçim	-11.4691
▁edilirken	-11.4691
düz	-11.4692
dp	-11.4693
▁peşinde	-11.4695
▁arayan	-11.4696
vra	-11.4698
▁saatte	-11.4699
▁akçe	-11.47
▁haksız	-11.4702
▁1922'	-11.4702
▁etkileşime	-11.4702
▁bulması	-11.4704
▁yılını	-11.4705
▁formülü	-11.4706
lacak	-11.4707
▁uçaklar	-11.4708
▁rezervleri	-11.471
▁proto	-11.4711
▁sabiti	-11.4711
hp	-11.4712
▁varlığının	-11.4712
▁bozukluk	-11.4713
▁sağlamış	-11.4714
▁dezavantaj	-11.4715
▁philadelphia	-11.4715
▁ılımlı	-11.4715
▁global	-11.4715
▁zekâ	-11.4715
▁evresi	-11.4715
▁türden	-11.4716
olympia	-11.4717
▁karşılaşması	-11.4718
dosya	-11.4718
▁çıkartıl	-11.4719
▁ülkesine	-11.472
▁elle	-11.4721
▁kabine	-11.4721
▁azalan	-11.4722
▁başlamışlardır	-11.4725
▁sümer	-11.4727
▁çatısı	-11.4729
▁alfabe	-11.473
▁hoşlanma	-11.473
larak	-11.4732
morf	-11.4733
▁grubunda	-11.4734
▁bırakan	-11.4734
▁hazırlıklar	-11.4736
▁franco	-11.4737
yecek	-11.4737
▁akla	-11.4738
▁artırma	-11.4738
-30	-11.474
▁gösterisi	-11.474
▁jeo	-11.474
▁etmektedirler	-11.4741
▁hazırlanması	-11.4742
▁raporlar	-11.4744
▁bulunduran	-11.4747
▁zenginlik	-11.4752
▁malta	-11.4754
▁press	-11.4755
▁akustik	-11.4757
▁habsburg	-11.4757
▁iddiası	-11.4757
▁first	-11.4757
▁mirza	-11.4758
▁hastanede	-11.4759
▁turist	-11.4759
▁kanıtladı	-11.4759
▁lastik	-11.4759
▁keşiş	-11.476
▁olasılığını	-11.476
▁kanunlar	-11.4761
▁faaliyeti	-11.4761
▁1848	-11.4762
▁zayıflat	-11.4763
▁boğa	-11.4764
▁mez	-11.4765
▁eşyalar	-11.4767
▁oyunculuk	-11.4769
▁(7	-11.477
▁ortaklığı	-11.4772
▁başarır	-11.4774
▁iri	-11.4774
doğan	-11.4774
▁otoritesi	-11.4777
onun	-11.4778
metri	-11.4779
▁wu	-11.478
▁arkasındaki	-11.4781
▁odaklandı	-11.4782
▁yiyen	-11.4784
▁istemiş	-11.4784
▁örnektir	-11.4791
▁east	-11.4791
▁rumlar	-11.4793
hava	-11.4794
sz	-11.4795
▁feda	-11.4798
="9"	-11.4798
▁boynuz	-11.4798
▁gökyüzü	-11.4798
▁goetz	-11.4799
▁dışarıda	-11.4799
▁seferde	-11.4799
▁taşkın	-11.4799
▁kullanılıyordu	-11.48
▁anahtarı	-11.4802
▁light	-11.4803
▁batum	-11.4804
▁cebir	-11.4804
▁başardılar	-11.4804
▁kimin	-11.4804
▁izotop	-11.4805
▁ailesinden	-11.4806
▁çekerek	-11.4806
nico	-11.4806
cıları	-11.4807
▁sembol	-11.481
▁demek	-11.481
▁format	-11.481
cıların	-11.481
▁durumdaydı	-11.4812
▁kavramsal	-11.4812
▁gemilerinin	-11.4812
▁vazgeçti	-11.4813
▁zen	-11.4813
▁istikrar	-11.4815
▁dakikasında	-11.4817
▁ayrılığı	-11.4818
▁yapılmasına	-11.482
▁edebilmek	-11.4823
▁sonic	-11.4823
▁katar	-11.4824
amin	-11.4824
▁gördükleri	-11.4827
night	-11.4831
▁dikkatli	-11.4834
▁çıkıl	-11.4838
▁öklid	-11.484
wit	-11.484
▁kehanet	-11.484
▁tezi	-11.4841
▁melez	-11.4842
▁dönmeye	-11.4845
▁güçsüz	-11.4847
▁adasında	-11.4847
▁bölük	-11.485
▁açıklanmıştır	-11.4852
▁sand	-11.4853
▁incelemeler	-11.4855
konu	-11.4856
dırlar	-11.4857
▁dinin	-11.4858
oli	-11.4859
▁portre	-11.4859
▁vurguladı	-11.4861
▁cap	-11.4862
▁partisinin	-11.4862
▁konuşmasında	-11.4863
kırmızı	-11.4863
▁taşınan	-11.4865
▁geçmesine	-11.4865
▁üstelik	-11.4865
▁muhteşem	-11.4867
ugh	-11.4868
▁kulenin	-11.4868
▁locke	-11.487
▁benzin	-11.4872
▁fiili	-11.4873
ilecek	-11.4876
▁1973'	-11.4877
▁1.5	-11.4879
▁kesilmiş	-11.4879
▁yasakladı	-11.4879
▁yıldızları	-11.4879
zerkavi	-11.4882
▁telaffuz	-11.4882
▁sahra	-11.4883
çuk	-11.4883
▁söylenebilir	-11.4883
▁gözlemevi	-11.4883
iyorlardı	-11.4884
dow	-11.4884
▁ferman	-11.4886
▁patrik	-11.4888
▁gövdesi	-11.4888
▁üretimini	-11.4889
emeyeceğini	-11.4889
▁bileşikler	-11.4889
▁yönetime	-11.489
▁wal	-11.489
veri	-11.4891
ağ	-11.4891
▁hasarı	-11.4891
▁metinlerin	-11.4892
▁ağaçlar	-11.4892
sson	-11.4892
▁kanallar	-11.4892
ima	-11.4892
▁ball	-11.4895
▁suda	-11.4896
▁erkeğin	-11.4896
▁katliamlar	-11.4898
▁aracının	-11.4899
▁içlerine	-11.4899
mân	-11.4899
▁1916	-11.49
mart	-11.4901
tig	-11.4902
▁arkadaşlarının	-11.4903
▁onaylandı	-11.4904
▁bale	-11.4905
▁devrimin	-11.4907
wei	-11.4909
_2	-11.4911
▁açabilir	-11.4913
▁mısırlı	-11.4913
▁kanalında	-11.4914
▁bölüme	-11.4915
▁talepleri	-11.4915
▁istatistikleri	-11.4916
▁170	-11.4919
▁aramaya	-11.4921
▁sanatçıları	-11.4922
ë	-11.4924
▁glukoz	-11.4924
▁mühür	-11.4924
▁oynayarak	-11.4924
▁şehirden	-11.4924
▁hamasaki	-11.4924
▁%0	-11.4925
▁milano	-11.4925
omon	-11.4926
anne	-11.4926
▁yansıtma	-11.4926
▁spa	-11.4926
▁gelişmeye	-11.4926
▁sinyalleri	-11.4926
▁molekül	-11.4928
▁mantıksal	-11.4928
mara	-11.493
▁etkisine	-11.493
izasyonu	-11.4931
ışık	-11.4931
▁ergen	-11.4933
▁dişiler	-11.4934
▁donanmasının	-11.4937
▁iletim	-11.4938
▁ilkbahar	-11.4939
▁yarımada	-11.4941
▁nitelik	-11.4942
▁odaları	-11.4946
▁yapıyordu	-11.4947
▁hayatında	-11.4948
▁makalesi	-11.4949
cio	-11.495
▁düşüncelerini	-11.4952
▁ötesi	-11.4952
▁soğu	-11.4953
kem	-11.4955
▁yöresi	-11.4956
▁karşısındaki	-11.4956
▁materyaller	-11.4957
liz	-11.4958
lendirir	-11.4961
mobile	-11.4963
▁oturdu	-11.4966
▁hindu	-11.4966
▁ferdinand	-11.4967
▁lincoln	-11.4967
ē	-11.4967
▁faşizm	-11.4967
▁abluka	-11.4967
▁manço	-11.4967
▁ufuk	-11.4967
yang	-11.4968
▁verilmişti	-11.4969
▁yazıldığı	-11.497
▁geliştirmiştir	-11.497
▁skorla	-11.4971
▁göndermiştir	-11.4973
▁savunucuları	-11.4974
▁operatör	-11.4974
▁over	-11.4974
▁portresi	-11.4976
▁ayrılmak	-11.4977
▁bazlı	-11.4978
▁birliğinin	-11.4979
▁yaşaması	-11.4981
▁verilecek	-11.4983
mavi	-11.4983
▁duru	-11.4983
▁yenen	-11.4984
▁başlamasından	-11.4986
▁dağılma	-11.4987
▁golf	-11.4987
▁arkasına	-11.4989
▁üretken	-11.4991
▁durumunun	-11.4994
▁ralli	-11.4997
▁canlandırma	-11.4998
▁cho	-11.5001
amerika	-11.5002
duğu	-11.5002
▁jin	-11.5004
▁metaller	-11.5004
▁renkte	-11.5004
▁anlaşıldı	-11.5006
▁önerme	-11.5007
▁tutku	-11.5007
▁sömürgeci	-11.5008
▁yatkın	-11.5009
▁ebû	-11.5009
▁farabi	-11.501
▁ayrılık	-11.501
▁gelişmesine	-11.501
ball	-11.5011
▁yayımlanmıştır	-11.5012
▁1904	-11.5013
▁görülmemiş	-11.5017
▁ayda	-11.5019
mera	-11.502
▁âlem	-11.5021
▁edilmedi	-11.5021
▁oyların	-11.5022
rusya	-11.5022
▁adaylar	-11.5023
▁muharebeye	-11.5023
▁harman	-11.5024
▁kuşların	-11.5024
▁ölüme	-11.5024
▁olmanın	-11.5025
▁kıyısındaki	-11.5025
▁kralları	-11.5025
▁ilgilenme	-11.5026
▁etkilenmiş	-11.5028
▁beyi	-11.503
▁çıkabil	-11.503
▁kariyerindeki	-11.5031
yüksek	-11.5032
▁feodal	-11.5034
▁üstlendiği	-11.5037
mekle	-11.5038
▁buralarda	-11.5038
▁anlaşmaları	-11.5041
▁gösterilme	-11.5042
▁gürültü	-11.5043
bai	-11.5044
▁dizayn	-11.5046
▁2.0	-11.5047
▁tepkisi	-11.5047
▁enerjiyi	-11.5048
lop	-11.5049
▁programını	-11.5049
onu	-11.505
▁sokma	-11.505
▁avrasya	-11.5051
▁anıtkabir	-11.5052
▁aristokrat	-11.5052
▁pembe	-11.5052
▁verip	-11.5052
▁başlayınca	-11.5053
▁peçenekler	-11.5053
▁onuruna	-11.5053
▁dayanıyordu	-11.5054
▁frederick	-11.5056
▁keşfedilen	-11.5056
▁edince	-11.506
▁yazısında	-11.506
▁kıyafetleri	-11.5061
▁konuldu	-11.5062
▁içsel	-11.5063
▁korun	-11.5066
▁yakınındaki	-11.5067
▁içindedir	-11.5069
▁akar	-11.507
sum	-11.5071
kaç	-11.5075
▁palm	-11.5077
▁etmeden	-11.5078
▁mülteciler	-11.5078
▁tankları	-11.5079
zî	-11.5083
▁çıkarmaya	-11.5084
▁aslı	-11.5086
▁faşist	-11.5087
▁onarım	-11.5087
▁cezaevi	-11.5089
▁evleri	-11.509
system	-11.5093
tura	-11.5093
▁girmeyi	-11.5093
▁burs	-11.5094
▁diferansiyel	-11.5095
▁manhattan	-11.5095
▁mücevher	-11.5095
▁senarist	-11.5095
▁safa	-11.5097
▁düzenlemek	-11.5097
lemez	-11.5098
▁ısıtma	-11.5098
▁tanımlanması	-11.5098
▁reddeden	-11.5099
▁medici	-11.51
▁ryan	-11.5102
▁etkilenmiştir	-11.5103
▁haçlıların	-11.5103
▁getirmektedir	-11.5103
▁doktoru	-11.5103
▁kamyon	-11.5104
lev	-11.5105
▁sınıfın	-11.5106
▁evinin	-11.5108
oro	-11.511
▁fall	-11.5111
▁duygular	-11.5112
yy	-11.5112
▁görüşüne	-11.5112
▁1932	-11.5114
▁nötr	-11.5115
▁yemekleri	-11.5116
▁eşleşti	-11.5116
▁romalıların	-11.5116
▁gösterildiği	-11.5117
▁hikâyenin	-11.5119
▁endeksi	-11.512
▁sokrates	-11.512
adlandırılmıştır	-11.5121
mektedirler	-11.5121
▁mahkemeler	-11.5121
▁ayına	-11.5122
kaf	-11.5123
▁boyutta	-11.5128
▁senatosu	-11.5129
culuk	-11.5129
▁güçlerine	-11.5132
are	-11.5133
osfer	-11.5135
ert	-11.5137
▁istismar	-11.5138
▁1923'	-11.5138
▁holmes	-11.5139
▁cambridge	-11.5139
oğu	-11.5139
itz	-11.5139
▁afgan	-11.514
pak	-11.5141
able	-11.5143
▁zamanlarında	-11.5143
▁çatışmalarda	-11.5143
▁anlattığı	-11.5144
▁ortadoğu	-11.5145
mamış	-11.5145
▁sırası	-11.5146
▁desteklediği	-11.5147
▁350	-11.5147
▁doğruluk	-11.5148
ancak	-11.5148
▁istatistik	-11.5148
▁hesab	-11.5149
▁1969'	-11.515
▁makul	-11.515
▁topluma	-11.5151
▁eklenen	-11.5151
▁bilgilere	-11.5152
▁canlandırdığı	-11.5152
▁oynamış	-11.5152
▁kurtulan	-11.5153
▁görünmez	-11.5155
lendiğini	-11.5158
▁nef	-11.5159
▁tartışmaya	-11.516
▁öldürmeye	-11.5161
▁gelmesiyle	-11.5161
▁almakta	-11.5163
▁otizm	-11.5164
▁toplantılar	-11.5166
▁cephesinde	-11.5171
▁romanın	-11.5171
fc	-11.5177
ksızın	-11.5178
▁gerçekleş	-11.5179
▁survivor	-11.518
▁karışım	-11.5181
▁england	-11.5181
▁solucan	-11.5182
▁gişe	-11.5183
may	-11.5183
▁politikasını	-11.5184
▁cisimler	-11.5184
▁sarf	-11.5184
▁bildirmiştir	-11.5185
▁makedon	-11.5186
к	-11.5186
▁tarafındaki	-11.5186
▁değiştiren	-11.5187
▁istekleri	-11.5188
▁ilgilen	-11.5189
▁kayalık	-11.519
face	-11.5191
▁manda	-11.5192
▁ulaşımı	-11.5192
▁ettiklerini	-11.5193
▁fok	-11.5195
▁mecliste	-11.5195
▁etkileşimi	-11.5195
▁yeteneklerini	-11.5199
▁televizyonda	-11.5202
▁zehirli	-11.5203
▁idaresinde	-11.5205
dım	-11.5206
▁fra	-11.5206
▁elini	-11.5206
▁bulamadı	-11.5209
▁arkeoloji	-11.5209
▁kapasiteli	-11.521
vari	-11.521
▁ölçmek	-11.5212
▁more	-11.5212
▁konsepti	-11.5213
▁tenis	-11.5214
▁elden	-11.5215
▁yüzdesi	-11.5218
▁1930	-11.522
▁tüyleri	-11.522
kisi	-11.5221
milliyet	-11.5224
▁frig	-11.5224
▁gübre	-11.5224
▁tasavvuf	-11.5225
▁buyruk	-11.5225
▁beklediği	-11.5225
▁düello	-11.5225
▁tevrat	-11.5225
▁yapmaları	-11.5225
▁göreli	-11.5225
▁tamamlayarak	-11.5225
▁dilini	-11.5227
▁dönüşmüştür	-11.5227
gösterilmektedir	-11.5228
▁bağlanan	-11.5229
▁yerleştirdi	-11.523
▁sorumlusu	-11.523
▁düzenlenmiştir	-11.5231
▁kurtardı	-11.5231
▁saldıran	-11.5231
▁1897	-11.5232
▁kısıtlamalar	-11.5233
andro	-11.5233
▁şöhret	-11.5233
▁kopyası	-11.5234
dig	-11.5235
▁down	-11.5235
▁karara	-11.5235
▁...]	-11.5237
▁sıkıntılar	-11.5237
▁hızır	-11.5238
▁hükümetinin	-11.5238
▁gla	-11.5239
scar	-11.5242
▁charlie	-11.5242
▁61	-11.5243
▁çare	-11.5244
▁mutasyon	-11.5246
▁başlatma	-11.5246
▁üniversiteler	-11.5246
▁glenn	-11.5248
▁tanrının	-11.5248
▁bağladı	-11.5248
bik	-11.5249
▁1925	-11.525
▁tutmaya	-11.5251
slamiyet	-11.5251
▁1972'	-11.5254
▁yenilen	-11.5257
▁family	-11.5257
lendirilmiştir	-11.5258
▁ürünün	-11.5259
▁petro	-11.5259
▁imam	-11.526
▁oynamak	-11.526
▁bağlanmış	-11.526
▁arkadan	-11.5261
▁semptomlar	-11.5261
yıl	-11.5264
▁inc	-11.5264
apa	-11.5267
▁edemedi	-11.5267
▁merckx	-11.5268
▁bariyer	-11.5269
▁telekom	-11.5269
bolu	-11.5269
▁yazmış	-11.527
▁viral	-11.5273
▁köyün	-11.5273
▁1938'	-11.5273
▁bağlanmıştır	-11.5274
▁harap	-11.5274
▁mücadeleye	-11.5276
▁1878	-11.5277
▁futbolcular	-11.528
▁manisa	-11.528
ess	-11.5282
trick	-11.5283
▁ayları	-11.5283
▁porto	-11.5285
▁yenilikçi	-11.5285
▁ilçeleri	-11.5287
truth	-11.5288
▁ağlar	-11.5288
▁malları	-11.5288
▁1952	-11.5291
şır	-11.5291
▁başarısızlık	-11.5295
▁benlik	-11.5295
▁kararla	-11.5296
▁kentleri	-11.5297
▁enerjili	-11.5297
▁öğrencilere	-11.5299
▁basınçlı	-11.53
▁justin	-11.53
▁altından	-11.5302
▁sınavı	-11.5303
▁köyler	-11.5305
▁orkestrası	-11.5306
▁cass	-11.5306
▁padişahın	-11.5307
rol	-11.5308
2009	-11.5309
▁saldırıların	-11.531
▁ipod	-11.5312
▁diskalifiye	-11.5312
▁fotovoltaik	-11.5312
▁barbar	-11.5313
▁summerslam	-11.5314
▁olabilmektedir	-11.5314
▁iradesi	-11.5322
▁sad	-11.5322
▁ilkokul	-11.5324
▁sineması	-11.5324
▁diyet	-11.5324
▁altını	-11.5325
▁amazon	-11.5326
▁rekabeti	-11.5326
▁birleştirme	-11.5327
▁kültüründe	-11.5327
▁dokunma	-11.5328
▁this	-11.5328
▁getirmeye	-11.5328
▁değerlendirmesi	-11.5329
▁yavaşlat	-11.5332
emediği	-11.5335
▁koşma	-11.5336
▁çabalar	-11.5336
▁askerin	-11.5336
▁yeteneğine	-11.5336
▁giymiş	-11.5337
mizde	-11.5339
▁mazda	-11.5339
▁sınırını	-11.534
▁seferine	-11.534
mori	-11.5341
▁1935	-11.5341
▁%50	-11.5342
ado	-11.5342
▁etmeyen	-11.5342
▁destan	-11.5343
▁açılır	-11.5344
▁prodüksiyon	-11.5344
▁(8	-11.5344
▁gözlemleri	-11.5351
▁atmosferin	-11.5351
[...]
